#include "magic_wand_model_data.h"

// We need to keep the data array aligned on some architectures.
#ifdef __has_attribute
#define HAVE_ATTRIBUTE(x) __has_attribute(x)
#else
#define HAVE_ATTRIBUTE(x) 0
#endif
#if HAVE_ATTRIBUTE(aligned) || (defined(__GNUC__) && !defined(__clang__))
#define DATA_ALIGN_ATTRIBUTE __attribute__((aligned(4)))
#else
#define DATA_ALIGN_ATTRIBUTE
#endif

const unsigned char g_magic_wand_model_data[] DATA_ALIGN_ATTRIBUTE = {
  0x1c, 0x00, 0x00, 0x00, 0x54, 0x46, 0x4c, 0x33, 0x00, 0x00, 0x12, 0x00,
  0x1c, 0x00, 0x04, 0x00, 0x08, 0x00, 0x0c, 0x00, 0x10, 0x00, 0x14, 0x00,
  0x00, 0x00, 0x18, 0x00, 0x12, 0x00, 0x00, 0x00, 0x03, 0x00, 0x00, 0x00,
  0x24, 0x30, 0x00, 0x00, 0x10, 0x00, 0x00, 0x00, 0x1c, 0x00, 0x00, 0x00,
  0x2c, 0x00, 0x00, 0x00, 0x0c, 0x00, 0x00, 0x00, 0x01, 0x00, 0x00, 0x00,
  0x14, 0x01, 0x00, 0x00, 0x01, 0x00, 0x00, 0x00, 0xdc, 0x00, 0x00, 0x00,
  0x0f, 0x00, 0x00, 0x00, 0x54, 0x4f, 0x43, 0x4f, 0x20, 0x43, 0x6f, 0x6e,
  0x76, 0x65, 0x72, 0x74, 0x65, 0x64, 0x2e, 0x00, 0x12, 0x00, 0x00, 0x00,
  0xb0, 0x00, 0x00, 0x00, 0xa4, 0x00, 0x00, 0x00, 0x98, 0x00, 0x00, 0x00,
  0x8c, 0x00, 0x00, 0x00, 0x80, 0x00, 0x00, 0x00, 0x74, 0x00, 0x00, 0x00,
  0x68, 0x00, 0x00, 0x00, 0x60, 0x00, 0x00, 0x00, 0x58, 0x00, 0x00, 0x00,
  0x50, 0x00, 0x00, 0x00, 0x48, 0x00, 0x00, 0x00, 0x40, 0x00, 0x00, 0x00,
  0x38, 0x00, 0x00, 0x00, 0x2c, 0x00, 0x00, 0x00, 0x20, 0x00, 0x00, 0x00,
  0x18, 0x00, 0x00, 0x00, 0x10, 0x00, 0x00, 0x00, 0x04, 0x00, 0x00, 0x00,
  0x6e, 0xd2, 0xff, 0xff, 0x68, 0x00, 0x00, 0x00, 0x30, 0xd2, 0xff, 0xff,
  0x34, 0xd2, 0xff, 0xff, 0x7e, 0xd2, 0xff, 0xff, 0xf0, 0x01, 0x00, 0x00,
  0x86, 0xd2, 0xff, 0xff, 0xc8, 0x03, 0x00, 0x00, 0x48, 0xd2, 0xff, 0xff,
  0x4c, 0xd2, 0xff, 0xff, 0x50, 0xd2, 0xff, 0xff, 0x54, 0xd2, 0xff, 0xff,
  0x58, 0xd2, 0xff, 0xff, 0x5c, 0xd2, 0xff, 0xff, 0xa6, 0xd2, 0xff, 0xff,
  0xc0, 0x0d, 0x00, 0x00, 0xae, 0xd2, 0xff, 0xff, 0x00, 0x2a, 0x00, 0x00,
  0xb6, 0xd2, 0xff, 0xff, 0x60, 0x2a, 0x00, 0x00, 0xbe, 0xd2, 0xff, 0xff,
  0xe0, 0x2a, 0x00, 0x00, 0xc6, 0xd2, 0xff, 0xff, 0x48, 0x2b, 0x00, 0x00,
  0xce, 0xd2, 0xff, 0xff, 0x98, 0x2c, 0x00, 0x00, 0x90, 0xd2, 0xff, 0xff,
  0x05, 0x00, 0x00, 0x00, 0x31, 0x2e, 0x35, 0x2e, 0x30, 0x00, 0x00, 0x00,
  0x54, 0xf4, 0xff, 0xff, 0x08, 0x00, 0x00, 0x00, 0x11, 0x00, 0x00, 0x00,
  0x13, 0x00, 0x00, 0x00, 0x6d, 0x69, 0x6e, 0x5f, 0x72, 0x75, 0x6e, 0x74,
  0x69, 0x6d, 0x65, 0x5f, 0x76, 0x65, 0x72, 0x73, 0x69, 0x6f, 0x6e, 0x00,
  0x0c, 0x00, 0x14, 0x00, 0x04, 0x00, 0x08, 0x00, 0x0c, 0x00, 0x10, 0x00,
  0x0c, 0x00, 0x00, 0x00, 0x20, 0x00, 0x00, 0x00, 0x14, 0x00, 0x00, 0x00,
  0x08, 0x00, 0x00, 0x00, 0x88, 0x2c, 0x00, 0x00, 0x01, 0x00, 0x00, 0x00,
  0x00, 0x00, 0x00, 0x00, 0x01, 0x00, 0x00, 0x00, 0x01, 0x00, 0x00, 0x00,
  0x10, 0x00, 0x00, 0x00, 0x9c, 0x0c, 0x00, 0x00, 0x14, 0x0b, 0x00, 0x00,
  0xd4, 0x00, 0x00, 0x00, 0x24, 0x29, 0x00, 0x00, 0x84, 0x00, 0x00, 0x00,
  0xa4, 0x02, 0x00, 0x00, 0x80, 0x29, 0x00, 0x00, 0x5c, 0x0b, 0x00, 0x00,
  0xb0, 0x0c, 0x00, 0x00, 0xc4, 0x2b, 0x00, 0x00, 0xf0, 0x0b, 0x00, 0x00,
  0x2c, 0x0c, 0x00, 0x00, 0x48, 0x2a, 0x00, 0x00, 0xec, 0x29, 0x00, 0x00,
  0x08, 0x00, 0x00, 0x00, 0x88, 0x0b, 0x00, 0x00, 0x66, 0xd4, 0xff, 0xff,
  0x10, 0x00, 0x00, 0x00, 0x10, 0x00, 0x00, 0x00, 0x1c, 0x00, 0x00, 0x00,
  0x40, 0x00, 0x00, 0x00, 0x04, 0x00, 0x00, 0x00, 0x01, 0x00, 0x00, 0x00,
  0x15, 0x00, 0x00, 0x00, 0x01, 0x00, 0x00, 0x00, 0x08, 0x00, 0x00, 0x00,
  0x20, 0x00, 0x00, 0x00, 0x73, 0x65, 0x71, 0x75, 0x65, 0x6e, 0x74, 0x69,
  0x61, 0x6c, 0x2f, 0x6d, 0x61, 0x78, 0x5f, 0x70, 0x6f, 0x6f, 0x6c, 0x69,
  0x6e, 0x67, 0x32, 0x64, 0x2f, 0x4d, 0x61, 0x78, 0x50, 0x6f, 0x6f, 0x6c,
  0x00, 0x00, 0x00, 0x00, 0x88, 0xd3, 0xff, 0xff, 0xba, 0xd4, 0xff, 0xff,
  0x10, 0x00, 0x00, 0x00, 0x0f, 0x00, 0x00, 0x00, 0x1c, 0x00, 0x00, 0x00,
  0x34, 0x00, 0x00, 0x00, 0x04, 0x00, 0x00, 0x00, 0x01, 0x00, 0x00, 0x00,
  0x40, 0x00, 0x00, 0x00, 0x03, 0x00, 0x00, 0x00, 0x08, 0x00, 0x00, 0x00,
  0x16, 0x00, 0x00, 0x00, 0x73, 0x65, 0x71, 0x75, 0x65, 0x6e, 0x74, 0x69,
  0x61, 0x6c, 0x2f, 0x63, 0x6f, 0x6e, 0x76, 0x32, 0x64, 0x2f, 0x52, 0x65,
  0x6c, 0x75, 0x00, 0x00, 0xd0, 0xd3, 0xff, 0xff, 0x02, 0xd5, 0xff, 0xff,
  0x10, 0x00, 0x00, 0x00, 0x0e, 0x00, 0x00, 0x00, 0x1c, 0x00, 0x00, 0x00,
  0x44, 0x00, 0x00, 0x00, 0x04, 0x00, 0x00, 0x00, 0x01, 0x00, 0x00, 0x00,
  0x04, 0x00, 0x00, 0x00, 0x03, 0x00, 0x00, 0x00, 0x08, 0x00, 0x00, 0x00,
  0x27, 0x00, 0x00, 0x00, 0x73, 0x65, 0x71, 0x75, 0x65, 0x6e, 0x74, 0x69,
  0x61, 0x6c, 0x2f, 0x63, 0x6f, 0x6e, 0x76, 0x32, 0x64, 0x2f, 0x43, 0x6f,
  0x6e, 0x76, 0x32, 0x44, 0x2f, 0x52, 0x65, 0x61, 0x64, 0x56, 0x61, 0x72,
  0x69, 0x61, 0x62, 0x6c, 0x65, 0x4f, 0x70, 0x00, 0x28, 0xd4, 0xff, 0xff,
  0x80, 0x01, 0x00, 0x00, 0x3f, 0x0c, 0x5b, 0xbc, 0x8e, 0x61, 0x6c, 0x3e,
  0x87, 0x82, 0xb0, 0xbe, 0x53, 0x6c, 0x10, 0xbd, 0x40, 0x1b, 0xc1, 0x3e,
  0x41, 0x49, 0xae, 0x3d, 0x91, 0x57, 0x75, 0x3c, 0x85, 0x69, 0xcb, 0xbd,
  0x4f, 0x55, 0x89, 0x3d, 0xcb, 0xe1, 0x62, 0xbe, 0x46, 0xd6, 0x2a, 0xbe,
  0x0b, 0x01, 0x8f, 0x3e, 0x89, 0xf3, 0x57, 0x3e, 0xf3, 0x15, 0x01, 0xbe,
  0x4a, 0x25, 0x37, 0xbe, 0xd4, 0x67, 0x10, 0xbd, 0x38, 0x51, 0xaf, 0xbd,
  0xaa, 0x9e, 0x19, 0x3e, 0x8e, 0x27, 0x3f, 0x3d, 0xd3, 0xf8, 0x95, 0x3e,
  0x89, 0xa3, 0x81, 0xbd, 0x2a, 0x0d, 0x74, 0xbe, 0x3d, 0x04, 0x04, 0x3e,
  0xac, 0x9e, 0x88, 0xbd, 0x57, 0xdc, 0x98, 0x3d, 0x53, 0xbb, 0xf8, 0xbd,
  0x8a, 0xe2, 0x55, 0xbe, 0xc1, 0xd4, 0x87, 0x3e, 0x62, 0x62, 0xab, 0x3d,
  0xa9, 0x84, 0x23, 0x3f, 0xe0, 0xe0, 0x96, 0xbd, 0x56, 0xaa, 0x0b, 0x3d,
  0x05, 0xad, 0x5a, 0x3d, 0x0c, 0x2e, 0x38, 0xbd, 0x2d, 0xeb, 0xbe, 0xbe,
  0x16, 0xd5, 0x8f, 0xbd, 0xb0, 0xd0, 0x10, 0x3e, 0x5c, 0x77, 0x1e, 0x3e,
  0x2f, 0x38, 0x36, 0xbd, 0xbb, 0xd4, 0xb3, 0x3d, 0x6a, 0x05, 0x45, 0xbf,
  0xa6, 0x7e, 0x3d, 0x3e, 0x54, 0x80, 0x18, 0x3e, 0x97, 0xbf, 0x7c, 0x3d,
  0x1b, 0x51, 0x74, 0x3e, 0x2b, 0x4d, 0x0c, 0x3e, 0x9b, 0xec, 0xe5, 0x3d,
  0xc8, 0x28, 0x35, 0x3d, 0xf4, 0x1d, 0x8c, 0xbc, 0x87, 0xf4, 0x20, 0xbe,
  0x90, 0x80, 0xcf, 0x3e, 0x42, 0xc6, 0x52, 0xbe, 0x50, 0x71, 0xbe, 0xbe,
  0xdd, 0x50, 0xae, 0xbe, 0x38, 0xd9, 0xe5, 0xbd, 0x33, 0x90, 0x58, 0xbe,
  0x94, 0x8a, 0x03, 0xbd, 0xb9, 0x83, 0x1d, 0x3e, 0x44, 0x54, 0x93, 0x3e,
  0x74, 0xe7, 0x24, 0xbe, 0x35, 0x90, 0x7f, 0xbe, 0x2a, 0x86, 0x7e, 0x3e,
  0xdf, 0x68, 0x55, 0x3d, 0x17, 0x9a, 0x47, 0x3d, 0xa3, 0xd7, 0xc4, 0x3e,
  0xe9, 0x14, 0x10, 0xbc, 0x45, 0x91, 0xd3, 0xbd, 0x1c, 0xaf, 0x4a, 0xbe,
  0x37, 0x86, 0x51, 0xbe, 0x7a, 0xe5, 0x11, 0x3e, 0xf1, 0x7f, 0x20, 0x3d,
  0x11, 0xba, 0x5e, 0xbe, 0x89, 0xf7, 0x3e, 0xbd, 0x8b, 0x59, 0x76, 0xbd,
  0x9c, 0xc9, 0x0d, 0x3e, 0xe9, 0x8f, 0x9e, 0xbd, 0xae, 0xd5, 0x0e, 0xbe,
  0x73, 0x1b, 0x83, 0xbd, 0x51, 0xc3, 0xd2, 0xbd, 0xe5, 0xc8, 0xdf, 0xbd,
  0x0a, 0x4f, 0x82, 0xbc, 0xe3, 0x5c, 0xa9, 0x3d, 0x62, 0x5c, 0x6b, 0x3e,
  0x70, 0xcf, 0xe5, 0xbd, 0xf9, 0x08, 0x13, 0xbe, 0x83, 0x5f, 0x08, 0xbe,
  0x45, 0xef, 0xfb, 0x3d, 0x45, 0x2b, 0xa8, 0x3c, 0xd2, 0xfe, 0xdc, 0x3e,
  0x11, 0x11, 0x45, 0x3d, 0xb0, 0x6d, 0xe1, 0xbd, 0xde, 0x97, 0x8d, 0xbe,
  0x4b, 0x93, 0xcc, 0x3c, 0x38, 0xdf, 0x00, 0xbe, 0xde, 0xcb, 0x9d, 0x3c,
  0x37, 0x17, 0x29, 0xbe, 0xde, 0xd6, 0xff, 0xff, 0x10, 0x00, 0x00, 0x00,
  0x0d, 0x00, 0x00, 0x00, 0x1c, 0x00, 0x00, 0x00, 0x48, 0x00, 0x00, 0x00,
  0x04, 0x00, 0x00, 0x00, 0x10, 0x00, 0x00, 0x00, 0x04, 0x00, 0x00, 0x00,
  0x01, 0x00, 0x00, 0x00, 0x08, 0x00, 0x00, 0x00, 0x29, 0x00, 0x00, 0x00,
  0x73, 0x65, 0x71, 0x75, 0x65, 0x6e, 0x74, 0x69, 0x61, 0x6c, 0x2f, 0x63,
  0x6f, 0x6e, 0x76, 0x32, 0x64, 0x5f, 0x31, 0x2f, 0x43, 0x6f, 0x6e, 0x76,
  0x32, 0x44, 0x2f, 0x52, 0x65, 0x61, 0x64, 0x56, 0x61, 0x72, 0x69, 0x61,
  0x62, 0x6c, 0x65, 0x4f, 0x70, 0x00, 0x00, 0x00, 0x08, 0xd6, 0xff, 0xff,
  0x00, 0x08, 0x00, 0x00, 0xc4, 0x4e, 0x18, 0xbe, 0xf3, 0xf9, 0x72, 0xbc,
  0xfa, 0xb2, 0x18, 0xbf, 0x47, 0x73, 0x1b, 0x3e, 0x0d, 0xca, 0xae, 0x3d,
  0x88, 0xa6, 0xa1, 0x3e, 0xf3, 0x8f, 0x03, 0xbe, 0x99, 0x46, 0x72, 0xbd,
  0x44, 0x1f, 0xbf, 0xbd, 0x40, 0x09, 0x91, 0xbd, 0x53, 0x35, 0xf3, 0xbe,
  0xc4, 0x1d, 0x61, 0x3e, 0x34, 0x6b, 0x7e, 0xbd, 0x5c, 0xd6, 0xcb, 0xbd,
  0x06, 0x5a, 0x62, 0xbd, 0x1b, 0xa5, 0x23, 0xbd, 0xa0, 0x15, 0xdf, 0xbb,
  0x16, 0x8f, 0x9f, 0xbd, 0xf0, 0xbb, 0x85, 0x3c, 0xd6, 0x60, 0x8e, 0xbe,
  0xda, 0x3f, 0x80, 0xbe, 0x2d, 0xd1, 0x58, 0xbe, 0x4d, 0xb1, 0x80, 0x3d,
  0x69, 0x8d, 0xb2, 0x3c, 0x0f, 0x77, 0x21, 0x3e, 0x77, 0x0c, 0x1d, 0xbd,
  0x4f, 0x93, 0x36, 0x3f, 0x3c, 0xe2, 0x8a, 0xbe, 0xd7, 0xa1, 0xd5, 0xbe,
  0x1c, 0x5e, 0x42, 0xbe, 0x3f, 0x42, 0xb1, 0xbd, 0x6b, 0x59, 0x5d, 0x3d,
  0xfe, 0x4b, 0xd6, 0x3e, 0x47, 0xb6, 0x01, 0xbe, 0xb4, 0x56, 0x2c, 0x3e,
  0x60, 0x47, 0x95, 0x3c, 0xb3, 0x10, 0xa9, 0x3d, 0xf5, 0x75, 0xf0, 0xbd,
  0x12, 0x9c, 0x79, 0xbe, 0x7d, 0x39, 0x9c, 0xbe, 0xf5, 0x2c, 0x1f, 0xbc,
  0x84, 0xd6, 0x85, 0xbe, 0x79, 0xdc, 0x4e, 0x3e, 0xc2, 0x62, 0xc1, 0x3e,
  0x41, 0x17, 0x15, 0x3e, 0xad, 0xb0, 0x8b, 0x3d, 0xd1, 0x44, 0x8e, 0xbe,
  0xdb, 0x76, 0x2d, 0xbe, 0x59, 0xea, 0x4a, 0x3e, 0x9c, 0xb2, 0x1b, 0xbe,
  0xb8, 0x5d, 0xc9, 0x3d, 0x4b, 0xd7, 0x40, 0x3e, 0x50, 0xfb, 0x8f, 0xbd,
  0xae, 0xbd, 0xe6, 0x3d, 0xe1, 0x1d, 0x55, 0xbe, 0x32, 0xf5, 0x29, 0xbe,
  0x5c, 0xe3, 0xd2, 0x3d, 0x7f, 0x1f, 0x5d, 0xbe, 0x85, 0x63, 0xca, 0x3e,
  0xfc, 0xae, 0x35, 0xbd, 0x87, 0xf7, 0xa7, 0x3e, 0x18, 0x4d, 0x8a, 0x3d,
  0x83, 0x93, 0x88, 0xbe, 0xc0, 0xe8, 0x9d, 0xbe, 0x76, 0x6d, 0x02, 0xbe,
  0x83, 0x50, 0x4f, 0x3d, 0xbc, 0x93, 0xb6, 0x3d, 0x24, 0x25, 0x35, 0x3d,
  0x1d, 0xd5, 0x7e, 0xbd, 0xbe, 0xbd, 0xcf, 0x3e, 0xb2, 0xeb, 0x7b, 0x3d,
  0xae, 0x01, 0xe2, 0xbd, 0xb6, 0x75, 0x7f, 0x3d, 0x88, 0x38, 0x6d, 0x3d,
  0x40, 0x0a, 0x72, 0x3d, 0x56, 0x92, 0x2a, 0x3e, 0x24, 0xac, 0xe9, 0x3d,
  0xa5, 0x8b, 0xec, 0xbc, 0x5e, 0x82, 0xce, 0xbd, 0xaf, 0x72, 0xbd, 0xbd,
  0x82, 0xe7, 0x0e, 0xbd, 0x03, 0x62, 0xc0, 0x3c, 0x51, 0x3d, 0xc6, 0x3d,
  0xf1, 0x50, 0x1e, 0xbe, 0xa2, 0x56, 0x2b, 0xbe, 0xca, 0x58, 0x86, 0x3e,
  0x82, 0x9a, 0x71, 0x3d, 0xab, 0xc3, 0x27, 0x3e, 0x9e, 0xda, 0xcf, 0xbd,
  0x55, 0x98, 0x89, 0xbc, 0xc2, 0x61, 0x7a, 0x3d, 0xda, 0x7b, 0x44, 0xbd,
  0xfa, 0xc3, 0xf1, 0x3c, 0x62, 0xbc, 0xc5, 0xbc, 0x6a, 0x43, 0x17, 0x3e,
  0x3f, 0x4b, 0xaa, 0x3d, 0xfb, 0x88, 0xa6, 0xbe, 0xd5, 0xb0, 0x9a, 0xbe,
  0x4d, 0xa1, 0xb3, 0xbe, 0xbb, 0xb8, 0x8d, 0xbe, 0x77, 0x56, 0xbc, 0xbe,
  0xc1, 0x8c, 0x0b, 0xbe, 0x60, 0x3b, 0x5f, 0xbe, 0x16, 0xf2, 0x30, 0x3d,
  0x99, 0x39, 0xef, 0x3e, 0x7c, 0x91, 0xd9, 0xbd, 0xce, 0xc3, 0x26, 0x3e,
  0x17, 0xea, 0x72, 0xbf, 0xda, 0x08, 0x64, 0xbf, 0x10, 0x57, 0x19, 0xbe,
  0x10, 0xda, 0x87, 0xbe, 0xa6, 0x0b, 0x0f, 0xbe, 0xc1, 0x93, 0x03, 0x3e,
  0xbe, 0xcd, 0x27, 0xbe, 0xca, 0xc2, 0x10, 0x3f, 0xa1, 0xef, 0xc2, 0x3d,
  0xde, 0x40, 0x84, 0xbd, 0x44, 0xf8, 0x66, 0x3e, 0xb2, 0xe3, 0x79, 0xbe,
  0xce, 0x6b, 0xad, 0xbe, 0x6d, 0xdd, 0x16, 0xbe, 0xa2, 0x04, 0x09, 0xbc,
  0xa6, 0xce, 0x13, 0xbf, 0x75, 0xd9, 0x46, 0x3e, 0x02, 0xb2, 0x8b, 0xbd,
  0x4f, 0x59, 0xc9, 0x3d, 0xa5, 0x87, 0x2e, 0xbe, 0xa6, 0x1c, 0xa2, 0x3d,
  0x54, 0xb2, 0x4d, 0xbe, 0x3b, 0x14, 0x89, 0xbd, 0xdc, 0x30, 0x19, 0x3e,
  0x57, 0x6d, 0x76, 0xbe, 0xb0, 0xba, 0x6d, 0xbe, 0x15, 0x50, 0x01, 0xbe,
  0x0c, 0x51, 0x83, 0xbd, 0xac, 0x42, 0x29, 0xbd, 0x17, 0x3a, 0x19, 0xbe,
  0xfe, 0xc9, 0xe9, 0xbd, 0x66, 0x2f, 0x56, 0xbc, 0x43, 0x84, 0x2c, 0xbe,
  0x7b, 0x8a, 0x11, 0xbe, 0x4b, 0xc5, 0x8b, 0xbd, 0x69, 0x7e, 0x9d, 0xbd,
  0xea, 0x88, 0xe8, 0xbc, 0x62, 0x9b, 0xbd, 0x3d, 0x97, 0xdf, 0xcb, 0xbd,
  0x63, 0xd3, 0xba, 0x3d, 0x2a, 0xad, 0x15, 0xbc, 0x9f, 0xaf, 0x54, 0xbe,
  0xad, 0x19, 0xe9, 0x3c, 0x04, 0xc4, 0xe8, 0xbd, 0x98, 0x43, 0x96, 0x3b,
  0xdf, 0xe5, 0x13, 0x3e, 0xd0, 0xf3, 0x00, 0x3e, 0x78, 0x42, 0x74, 0xbd,
  0x59, 0x4a, 0x17, 0x3e, 0x5e, 0x5d, 0x19, 0x3f, 0xee, 0x15, 0x89, 0xbd,
  0x40, 0xc5, 0xcf, 0x3d, 0xa9, 0xc9, 0xbe, 0x3b, 0xe7, 0xcd, 0x12, 0xbc,
  0x25, 0x35, 0x83, 0xbe, 0x85, 0xb9, 0xdd, 0x3c, 0xaa, 0x8f, 0xb9, 0x3d,
  0x89, 0x58, 0xee, 0x3d, 0xe6, 0x48, 0x4c, 0xbe, 0xb6, 0x43, 0xfe, 0xbd,
  0xbf, 0x0c, 0xee, 0x39, 0x52, 0x36, 0x7b, 0x3d, 0x11, 0x7b, 0x74, 0xbe,
  0x1d, 0x8a, 0x56, 0x3d, 0xb0, 0xca, 0xd0, 0xbd, 0x08, 0x77, 0xc6, 0xbd,
  0x73, 0xa4, 0x8a, 0xbe, 0x8a, 0x71, 0x70, 0xbe, 0x40, 0xff, 0xaa, 0x3e,
  0x26, 0x8d, 0x78, 0x3e, 0x80, 0x36, 0xd4, 0xbd, 0x21, 0xdb, 0xbe, 0xbb,
  0x7f, 0x7b, 0x0a, 0xbd, 0x7a, 0x27, 0x86, 0x3c, 0x3e, 0x16, 0x4e, 0xbe,
  0x9d, 0x36, 0x6a, 0xbe, 0xe4, 0x59, 0x10, 0x3e, 0x69, 0x5b, 0xdb, 0xbd,
  0x99, 0x15, 0x41, 0xbe, 0x53, 0x9f, 0xca, 0xbd, 0xc0, 0xf7, 0x69, 0x3d,
  0xa6, 0xea, 0x34, 0xbe, 0x34, 0x98, 0x2d, 0xbe, 0xfb, 0xc4, 0x36, 0xbe,
  0xfd, 0x10, 0x09, 0x3e, 0xaa, 0xcd, 0x7b, 0xbe, 0xb1, 0xfe, 0x1d, 0xbe,
  0xc8, 0xb4, 0x72, 0x3e, 0x69, 0x31, 0x90, 0xbe, 0xee, 0xd5, 0x85, 0xbe,
  0xf7, 0x69, 0x25, 0x3d, 0x27, 0x2f, 0x1e, 0xbe, 0x5a, 0xe1, 0xc8, 0xbd,
  0xa9, 0x8b, 0x01, 0xbe, 0xae, 0x18, 0xe3, 0xbd, 0x86, 0x20, 0x5a, 0x3e,
  0x79, 0xea, 0x11, 0xbe, 0x06, 0x2e, 0x0d, 0xbe, 0xf2, 0x48, 0x2b, 0x3d,
  0x60, 0xdc, 0x1f, 0xbe, 0x7c, 0x57, 0xd6, 0xbd, 0x0a, 0x1c, 0x5d, 0xbd,
  0x54, 0x29, 0x69, 0xbd, 0xa1, 0x3d, 0x93, 0xbe, 0x56, 0xe2, 0x12, 0x3e,
  0xa2, 0x3c, 0xde, 0x3e, 0x39, 0xc5, 0x4b, 0xb9, 0x2c, 0xfa, 0xea, 0xbd,
  0x5b, 0x2d, 0xa3, 0x3c, 0x08, 0xba, 0x7e, 0x3e, 0x39, 0x76, 0x7d, 0x3e,
  0xa1, 0xdc, 0x65, 0xbe, 0xc1, 0x1d, 0x9e, 0x3e, 0xf2, 0x91, 0x2d, 0x3e,
  0xdb, 0x93, 0xb8, 0xbd, 0x04, 0x5a, 0x0a, 0x3e, 0xe8, 0x5b, 0x13, 0x3d,
  0xb5, 0x98, 0x92, 0x3e, 0x8f, 0x8c, 0xe1, 0xbd, 0x9d, 0x4d, 0x4b, 0x3e,
  0xaa, 0x5a, 0x24, 0x3e, 0x29, 0xf6, 0x72, 0xbd, 0xb2, 0xab, 0xc8, 0x3c,
  0x63, 0xff, 0x1f, 0xbd, 0x76, 0x2f, 0x9a, 0xbe, 0xd0, 0x2d, 0x56, 0xbe,
  0xb7, 0x6c, 0x44, 0xbe, 0xc6, 0x94, 0x98, 0xbd, 0xe7, 0xde, 0x09, 0x3e,
  0xc8, 0x55, 0x58, 0x3e, 0x3c, 0xa0, 0x6d, 0x3e, 0x91, 0xb2, 0x0c, 0xbe,
  0xad, 0x26, 0x85, 0xbd, 0x39, 0x68, 0xda, 0xbc, 0xd3, 0x68, 0xd1, 0xbd,
  0x54, 0x7b, 0xc4, 0x3d, 0x6e, 0xc2, 0x44, 0xbe, 0xf6, 0xa9, 0x0c, 0x3e,
  0x7f, 0x26, 0xca, 0x3e, 0xae, 0xeb, 0x12, 0xbe, 0x30, 0x97, 0xf1, 0x3c,
  0x0a, 0x25, 0x2a, 0x3e, 0x60, 0x88, 0x34, 0xbd, 0x95, 0x64, 0x82, 0xbd,
  0x8d, 0x8e, 0x39, 0x3d, 0xf8, 0x2d, 0xca, 0xbd, 0x39, 0xe9, 0x92, 0x3d,
  0xc5, 0xd6, 0x00, 0xbe, 0xec, 0xb5, 0x8b, 0x3d, 0x2c, 0x78, 0x40, 0x3f,
  0x15, 0x89, 0xc3, 0xbc, 0xc8, 0xa3, 0xa8, 0x3d, 0xf2, 0x21, 0x92, 0x3c,
  0x50, 0x49, 0x06, 0x3d, 0x76, 0x15, 0xe5, 0xbd, 0xaf, 0x76, 0x4b, 0x3e,
  0x4b, 0xe3, 0x93, 0xba, 0xc8, 0x43, 0x8f, 0x3d, 0xff, 0x27, 0x85, 0x3d,
  0x52, 0x50, 0x7d, 0x3e, 0x16, 0x01, 0x1e, 0xbd, 0x90, 0x21, 0x29, 0x3e,
  0xec, 0x2a, 0xc7, 0xbd, 0xbe, 0x93, 0xb6, 0xbb, 0xc3, 0x53, 0xad, 0xbd,
  0x43, 0x79, 0x5b, 0xbe, 0xfc, 0xda, 0x29, 0xbd, 0x97, 0x96, 0x15, 0x3e,
  0xf5, 0x95, 0x27, 0xbe, 0xb3, 0x03, 0x8f, 0xbe, 0xe2, 0x8e, 0x32, 0xbe,
  0x73, 0x6b, 0x0b, 0xbd, 0x0d, 0xf0, 0xe8, 0xbd, 0x4b, 0xec, 0xe2, 0xbe,
  0x1a, 0x76, 0xe0, 0xbd, 0x8f, 0x83, 0xaa, 0x3d, 0xf7, 0x27, 0x3f, 0xbd,
  0x1c, 0x62, 0x93, 0xbe, 0xa5, 0x69, 0xd9, 0xbc, 0x9b, 0x14, 0xc1, 0xbd,
  0x7e, 0xde, 0x32, 0xbe, 0xbc, 0xd4, 0x0b, 0x3f, 0xf9, 0x79, 0x02, 0xbd,
  0x94, 0x50, 0x1d, 0x3e, 0xd0, 0xc0, 0x96, 0xbd, 0x0b, 0x68, 0xa0, 0x3b,
  0x5b, 0x82, 0x92, 0xbe, 0x70, 0xae, 0xae, 0xbd, 0x1d, 0x4d, 0x2e, 0xbd,
  0xef, 0x19, 0x24, 0xbe, 0x7c, 0x6b, 0x74, 0x3e, 0xc9, 0xaa, 0x22, 0xbe,
  0x17, 0x5e, 0xb0, 0xbe, 0x6f, 0x1d, 0x32, 0xbe, 0x99, 0x26, 0xa5, 0xbe,
  0xd5, 0xcf, 0x4a, 0x3c, 0x0b, 0x89, 0xef, 0xbd, 0x94, 0xb5, 0x34, 0xbe,
  0x02, 0x65, 0xc7, 0xbd, 0x4d, 0x65, 0x30, 0x3e, 0xe5, 0x79, 0xbd, 0xbd,
  0xd4, 0x83, 0xe0, 0xbd, 0xa2, 0x23, 0xf6, 0xbd, 0x17, 0x78, 0xbe, 0xbc,
  0x64, 0x2a, 0x1c, 0xbe, 0x73, 0x40, 0x55, 0xbe, 0xaa, 0x9a, 0xe4, 0xbd,
  0xaf, 0x43, 0x5c, 0x3e, 0x52, 0x63, 0xe2, 0x3d, 0xdb, 0x92, 0x67, 0xbd,
  0x3c, 0x08, 0x15, 0xbe, 0xb7, 0x9c, 0x71, 0xbd, 0x49, 0x21, 0xae, 0x3c,
  0xf9, 0x15, 0xc5, 0x3a, 0x3b, 0x7f, 0x53, 0xbe, 0xa3, 0x1f, 0xf0, 0x3d,
  0xab, 0x97, 0x06, 0xbe, 0x82, 0xc7, 0xa9, 0xba, 0xb7, 0x38, 0x61, 0xbd,
  0x80, 0x71, 0xfe, 0xbd, 0x24, 0x96, 0xb6, 0x3d, 0x4c, 0x55, 0x46, 0x3e,
  0x8d, 0x50, 0x57, 0xbe, 0x9a, 0x8d, 0x0c, 0x3d, 0xbf, 0x07, 0x12, 0xbe,
  0xcd, 0x53, 0x9f, 0xba, 0x9b, 0x03, 0x21, 0x3f, 0xb6, 0x6c, 0x51, 0xbe,
  0x22, 0x58, 0xa8, 0xbd, 0x15, 0x16, 0xb5, 0xbc, 0xca, 0x4e, 0x98, 0xbd,
  0xdd, 0x73, 0xe2, 0xbe, 0xa1, 0x75, 0x79, 0x3e, 0x7e, 0x93, 0x32, 0x3e,
  0x33, 0xc1, 0xac, 0xbd, 0x00, 0x67, 0xb4, 0xbd, 0xa8, 0xaf, 0x51, 0x3e,
  0x4f, 0xdd, 0x84, 0xbe, 0x87, 0xd1, 0x7f, 0xbe, 0x3b, 0x3b, 0x7c, 0xbd,
  0xe4, 0x2e, 0x21, 0x3e, 0x61, 0xc6, 0xd6, 0xb8, 0xec, 0xb8, 0x01, 0xbd,
  0xe4, 0xc7, 0xdc, 0xbd, 0x30, 0xe6, 0x47, 0x3d, 0x85, 0x65, 0x09, 0x3e,
  0xd1, 0xfc, 0xb5, 0xbe, 0x23, 0xf5, 0x4b, 0xbe, 0xb7, 0xa2, 0xda, 0xbe,
  0x97, 0xf7, 0x0e, 0xbf, 0x19, 0xf1, 0x70, 0xbe, 0xf2, 0x15, 0x92, 0xbe,
  0x8c, 0xfb, 0xba, 0x3d, 0x16, 0x9e, 0x94, 0x3e, 0x75, 0x20, 0x5f, 0xbe,
  0x63, 0xc3, 0x17, 0x3f, 0xcf, 0x30, 0x95, 0x3d, 0x5a, 0x79, 0x94, 0xbd,
  0xe8, 0x13, 0xc9, 0x3e, 0xc3, 0x0f, 0x9a, 0xbe, 0x9c, 0x44, 0xc4, 0xbe,
  0x88, 0xff, 0xd4, 0xbd, 0x7b, 0xfc, 0xc2, 0xbd, 0xaa, 0xc5, 0xb4, 0xbe,
  0x0d, 0xcd, 0x00, 0xbd, 0xde, 0x6f, 0x37, 0x3d, 0x06, 0x6f, 0xf6, 0x3d,
  0xf3, 0xf5, 0x16, 0xbe, 0x3e, 0x20, 0x7c, 0xbe, 0x76, 0x68, 0xa6, 0xbd,
  0x53, 0x4f, 0x7c, 0xbd, 0xaa, 0x8e, 0x60, 0x3e, 0xad, 0xd3, 0x99, 0x3d,
  0xea, 0xd3, 0xaf, 0x3e, 0xba, 0x9c, 0x14, 0xbe, 0x09, 0x87, 0x6e, 0xbd,
  0x84, 0x5a, 0xb5, 0x3c, 0x15, 0x92, 0x19, 0x3f, 0x4c, 0x28, 0xa9, 0xbe,
  0x7f, 0x20, 0x43, 0x3e, 0x8e, 0xc5, 0xe9, 0xbc, 0x29, 0xc7, 0x61, 0xbc,
  0x7a, 0x80, 0x9c, 0x3d, 0x1f, 0x34, 0xd8, 0xbe, 0xfe, 0x89, 0xb0, 0xbe,
  0x51, 0x5a, 0x3c, 0x3e, 0x01, 0xdb, 0x3e, 0xbe, 0x7d, 0xed, 0xc6, 0x3c,
  0xac, 0x21, 0xe2, 0xbc, 0xda, 0xdf, 0x38, 0x3e, 0xc8, 0x33, 0x53, 0x3e,
  0x55, 0xa8, 0xa2, 0xbe, 0x78, 0x81, 0x8e, 0xbe, 0x2d, 0xb1, 0xd8, 0x3d,
  0xb6, 0xd3, 0x05, 0xbe, 0xe7, 0x6a, 0x03, 0xbe, 0x2d, 0xc8, 0xa0, 0x3e,
  0xe4, 0x91, 0x89, 0xbd, 0x9d, 0x50, 0xf3, 0x3c, 0xf1, 0x3b, 0xf8, 0xbd,
  0x71, 0xe6, 0x3d, 0xbd, 0xb1, 0x0e, 0x93, 0x3d, 0xe0, 0x8c, 0x61, 0xbd,
  0xb7, 0xae, 0xd2, 0x3d, 0x7d, 0xd5, 0x46, 0x3d, 0x9a, 0xa6, 0xa6, 0x3d,
  0xd5, 0x81, 0x29, 0xbe, 0x13, 0x24, 0x31, 0xbd, 0xc0, 0x59, 0xa2, 0x3a,
  0x51, 0xdc, 0xed, 0xbe, 0xea, 0xd9, 0x7d, 0xbe, 0x80, 0x81, 0xec, 0xbe,
  0xff, 0xf5, 0x57, 0x3d, 0x5b, 0xd5, 0x07, 0xbe, 0xb9, 0x90, 0xa3, 0xbe,
  0xb2, 0xd1, 0x19, 0xbe, 0xef, 0x6e, 0x5a, 0xbd, 0x9f, 0xb6, 0xd0, 0x3e,
  0x1f, 0xfb, 0xcf, 0xbd, 0xa2, 0xee, 0xfc, 0xbd, 0xbd, 0x95, 0xc1, 0xbc,
  0xec, 0x5b, 0x44, 0xbc, 0x69, 0x02, 0x46, 0xbe, 0x29, 0xdb, 0x05, 0xbe,
  0x7c, 0xcd, 0xd7, 0x3d, 0x37, 0xad, 0x5f, 0x3e, 0x19, 0x1c, 0xe8, 0x3e,
  0xf4, 0xdc, 0x88, 0x3e, 0x3e, 0xe2, 0x80, 0x3d, 0xb1, 0x81, 0x58, 0x3d,
  0xc8, 0xd9, 0xa6, 0xbd, 0xd2, 0xab, 0x47, 0x3e, 0x9a, 0x85, 0xbf, 0xbd,
  0x0d, 0x22, 0x9e, 0xbd, 0x06, 0xa4, 0xcb, 0xbd, 0x76, 0x41, 0x40, 0x3e,
  0x3b, 0x25, 0x44, 0xbe, 0x6a, 0x46, 0x7c, 0xbe, 0x4f, 0x9b, 0x7a, 0xbe,
  0xf4, 0x48, 0xea, 0xbd, 0x75, 0x9c, 0xff, 0xbd, 0x79, 0x01, 0x6b, 0x3d,
  0x32, 0x61, 0x9e, 0x3e, 0x74, 0x38, 0xa4, 0xbd, 0xe0, 0x3a, 0xaf, 0xbd,
  0xe8, 0xc4, 0xca, 0xbd, 0xb4, 0x65, 0x8a, 0xbe, 0xd4, 0xaa, 0x02, 0xbc,
  0xe9, 0x51, 0xa7, 0x3c, 0xee, 0x62, 0xd2, 0xbd, 0xde, 0x5f, 0x20, 0x3e,
  0x39, 0x0b, 0x27, 0xbd, 0x9c, 0x49, 0x71, 0xbd, 0xad, 0x2f, 0xa1, 0x3c,
  0x6f, 0x77, 0xe5, 0xbd, 0x4a, 0xee, 0x95, 0x3e, 0x63, 0x89, 0x1e, 0x3c,
  0x23, 0x7e, 0x17, 0x3e, 0x8b, 0x97, 0x2c, 0xbe, 0x11, 0xcc, 0x28, 0x3d,
  0x55, 0x49, 0x74, 0x3d, 0xf0, 0x7e, 0xea, 0x3c, 0xb0, 0xd8, 0xb8, 0x3d,
  0xd0, 0x98, 0x00, 0xbe, 0x24, 0x38, 0x10, 0x3e, 0x72, 0x0c, 0x26, 0xbe,
  0x2d, 0x64, 0xd4, 0x3d, 0x75, 0xab, 0xdb, 0xbc, 0x9e, 0x60, 0x13, 0xbd,
  0x57, 0x1d, 0x59, 0x3d, 0x10, 0x58, 0xf5, 0xbc, 0xa0, 0xfb, 0xfd, 0x3d,
  0x09, 0xe3, 0xec, 0xba, 0x24, 0x05, 0x1f, 0x3e, 0x8d, 0x5b, 0xcd, 0x3d,
  0xc5, 0x85, 0x7f, 0x3e, 0x13, 0x69, 0x38, 0xbe, 0x41, 0x86, 0x78, 0xbd,
  0xed, 0xf7, 0x81, 0xbe, 0xd1, 0x78, 0xe8, 0x3e, 0x8e, 0x86, 0xfb, 0xbd,
  0x7e, 0x3f, 0x01, 0xbe, 0xf9, 0x28, 0x0f, 0xbe, 0x25, 0x8c, 0x4a, 0x3e,
  0xcb, 0x61, 0xbc, 0xbe, 0xa6, 0xb9, 0xb5, 0xbe, 0xb0, 0xa7, 0xa1, 0xbd,
  0x01, 0xc9, 0x1d, 0xbe, 0x6d, 0x88, 0x47, 0xbe, 0x0e, 0x98, 0x1e, 0xbe,
  0xae, 0x1b, 0x14, 0xbe, 0x40, 0x11, 0xc1, 0x3e, 0x62, 0x8a, 0xe2, 0x3c,
  0x8c, 0xf5, 0x29, 0xbe, 0x6f, 0x18, 0xee, 0xbc, 0x13, 0x29, 0x50, 0xbe,
  0x7a, 0x0a, 0xb6, 0xbd, 0x96, 0xb2, 0x53, 0xbe, 0x48, 0xfd, 0x33, 0xbe,
  0x16, 0x2c, 0x7d, 0x3e, 0x84, 0xaf, 0x24, 0x3e, 0x5f, 0xc1, 0xed, 0xbd,
  0x1f, 0xc5, 0xa1, 0x3c, 0x7f, 0x8e, 0x53, 0xbe, 0xcd, 0x18, 0xff, 0x3d,
  0x3e, 0xdf, 0xff, 0xff, 0x10, 0x00, 0x00, 0x00, 0x0c, 0x00, 0x00, 0x00,
  0x1c, 0x00, 0x00, 0x00, 0x34, 0x00, 0x00, 0x00, 0x04, 0x00, 0x00, 0x00,
  0x01, 0x00, 0x00, 0x00, 0x40, 0x00, 0x00, 0x00, 0x03, 0x00, 0x00, 0x00,
  0x01, 0x00, 0x00, 0x00, 0x0c, 0x00, 0x00, 0x00, 0x63, 0x6f, 0x6e, 0x76,
  0x32, 0x64, 0x5f, 0x69, 0x6e, 0x70, 0x75, 0x74, 0x00, 0x00, 0x00, 0x00,
  0x08, 0x00, 0x0c, 0x00, 0x04, 0x00, 0x08, 0x00, 0x08, 0x00, 0x00, 0x00,
  0x10, 0x00, 0x00, 0x00, 0x04, 0x00, 0x00, 0x00, 0x01, 0x00, 0x00, 0x00,
  0x00, 0x00, 0x7f, 0x43, 0x01, 0x00, 0x00, 0x00, 0x00, 0x00, 0x00, 0x00,
  0x9e, 0xdf, 0xff, 0xff, 0x10, 0x00, 0x00, 0x00, 0x0b, 0x00, 0x00, 0x00,
  0x1c, 0x00, 0x00, 0x00, 0x38, 0x00, 0x00, 0x00, 0x04, 0x00, 0x00, 0x00,
  0x01, 0x00, 0x00, 0x00, 0x15, 0x00, 0x00, 0x00, 0x01, 0x00, 0x00, 0x00,
  0x10, 0x00, 0x00, 0x00, 0x18, 0x00, 0x00, 0x00, 0x73, 0x65, 0x71, 0x75,
  0x65, 0x6e, 0x74, 0x69, 0x61, 0x6c, 0x2f, 0x63, 0x6f, 0x6e, 0x76, 0x32,
  0x64, 0x5f, 0x31, 0x2f, 0x52, 0x65, 0x6c, 0x75, 0x00, 0x00, 0x00, 0x00,
  0xb8, 0xde, 0xff, 0xff, 0xea, 0xdf, 0xff, 0xff, 0x10, 0x00, 0x00, 0x00,
  0x0a, 0x00, 0x00, 0x00, 0x1c, 0x00, 0x00, 0x00, 0x40, 0x00, 0x00, 0x00,
  0x04, 0x00, 0x00, 0x00, 0x01, 0x00, 0x00, 0x00, 0x07, 0x00, 0x00, 0x00,
  0x01, 0x00, 0x00, 0x00, 0x10, 0x00, 0x00, 0x00, 0x22, 0x00, 0x00, 0x00,
  0x73, 0x65, 0x71, 0x75, 0x65, 0x6e, 0x74, 0x69, 0x61, 0x6c, 0x2f, 0x6d,
  0x61, 0x78, 0x5f, 0x70, 0x6f, 0x6f, 0x6c, 0x69, 0x6e, 0x67, 0x32, 0x64,
  0x5f, 0x31, 0x2f, 0x4d, 0x61, 0x78, 0x50, 0x6f, 0x6f, 0x6c, 0x00, 0x00,
  0x0c, 0xdf, 0xff, 0xff, 0x3e, 0xe0, 0xff, 0xff, 0x10, 0x00, 0x00, 0x00,
  0x09, 0x00, 0x00, 0x00, 0x14, 0x00, 0x00, 0x00, 0x2c, 0x00, 0x00, 0x00,
  0x02, 0x00, 0x00, 0x00, 0x01, 0x00, 0x00, 0x00, 0x10, 0x00, 0x00, 0x00,
  0x15, 0x00, 0x00, 0x00, 0x73, 0x65, 0x71, 0x75, 0x65, 0x6e, 0x74, 0x69,
  0x61, 0x6c, 0x2f, 0x64, 0x65, 0x6e, 0x73, 0x65, 0x2f, 0x52, 0x65, 0x6c,
  0x75, 0x00, 0x00, 0x00, 0x4c, 0xdf, 0xff, 0xff, 0x7e, 0xe0, 0xff, 0xff,
  0x10, 0x00, 0x00, 0x00, 0x08, 0x00, 0x00, 0x00, 0x14, 0x00, 0x00, 0x00,
  0x30, 0x00, 0x00, 0x00, 0x02, 0x00, 0x00, 0x00, 0x01, 0x00, 0x00, 0x00,
  0x04, 0x00, 0x00, 0x00, 0x1a, 0x00, 0x00, 0x00, 0x73, 0x65, 0x71, 0x75,
  0x65, 0x6e, 0x74, 0x69, 0x61, 0x6c, 0x2f, 0x64, 0x65, 0x6e, 0x73, 0x65,
  0x5f, 0x31, 0x2f, 0x42, 0x69, 0x61, 0x73, 0x41, 0x64, 0x64, 0x00, 0x00,
  0x90, 0xdf, 0xff, 0xff, 0xc2, 0xe0, 0xff, 0xff, 0x10, 0x00, 0x00, 0x00,
  0x07, 0x00, 0x00, 0x00, 0x14, 0x00, 0x00, 0x00, 0x20, 0x00, 0x00, 0x00,
  0x02, 0x00, 0x00, 0x00, 0x01, 0x00, 0x00, 0x00, 0x04, 0x00, 0x00, 0x00,
  0x08, 0x00, 0x00, 0x00, 0x49, 0x64, 0x65, 0x6e, 0x74, 0x69, 0x74, 0x79,
  0x00, 0x00, 0x00, 0x00, 0xc4, 0xdf, 0xff, 0xff, 0xf6, 0xe0, 0xff, 0xff,
  0x10, 0x00, 0x00, 0x00, 0x06, 0x00, 0x00, 0x00, 0x14, 0x00, 0x00, 0x00,
  0x48, 0x00, 0x00, 0x00, 0x02, 0x00, 0x00, 0x00, 0x10, 0x00, 0x00, 0x00,
  0x70, 0x00, 0x00, 0x00, 0x30, 0x00, 0x00, 0x00, 0x73, 0x65, 0x71, 0x75,
  0x65, 0x6e, 0x74, 0x69, 0x61, 0x6c, 0x2f, 0x64, 0x65, 0x6e, 0x73, 0x65,
  0x2f, 0x4d, 0x61, 0x74, 0x4d, 0x75, 0x6c, 0x2f, 0x52, 0x65, 0x61, 0x64,
  0x56, 0x61, 0x72, 0x69, 0x61, 0x62, 0x6c, 0x65, 0x4f, 0x70, 0x2f, 0x74,
  0x72, 0x61, 0x6e, 0x73, 0x70, 0x6f, 0x73, 0x65, 0x00, 0x00, 0x00, 0x00,
  0x20, 0xe0, 0xff, 0xff, 0x00, 0x1c, 0x00, 0x00, 0x5e, 0x70, 0xeb, 0x3d,
  0x8b, 0xe2, 0x6d, 0xbe, 0x23, 0xe6, 0x2b, 0xbd, 0x38, 0xf3, 0xa8, 0xbe,
  0xea, 0xaf, 0x99, 0x3d, 0xf8, 0x9b, 0x89, 0x3d, 0x40, 0x95, 0x52, 0xbc,
  0x80, 0x3d, 0x82, 0xbe, 0x59, 0xeb, 0x65, 0x3e, 0x67, 0x10, 0xf0, 0x3e,
  0xf0, 0x43, 0x16, 0xbe, 0x42, 0x53, 0xce, 0xbe, 0xfe, 0x91, 0xa0, 0xbe,
  0x72, 0x55, 0x6f, 0x3e, 0xa0, 0x15, 0x27, 0x3d, 0xb0, 0x32, 0x1e, 0x3f,
  0x83, 0x9d, 0xa7, 0xbd, 0xdd, 0x2e, 0x83, 0xbc, 0xbd, 0x82, 0x86, 0xbd,
  0xc2, 0x70, 0x2f, 0x3d, 0x9f, 0x89, 0xa2, 0x3e, 0xc7, 0xf1, 0xa8, 0xbd,
  0x19, 0x8b, 0xa9, 0x3e, 0x6e, 0x61, 0xea, 0xbc, 0x04, 0x9b, 0xca, 0x3d,
  0x59, 0x62, 0x3f, 0x3e, 0x27, 0x6c, 0xf4, 0x3b, 0x60, 0x8a, 0x71, 0x3d,
  0x57, 0x12, 0xbb, 0xbd, 0x32, 0x0c, 0x42, 0xbe, 0xe5, 0x0f, 0x00, 0xbd,
  0x7f, 0x1c, 0x85, 0x3e, 0x98, 0x74, 0xa0, 0x3e, 0x57, 0x7e, 0x96, 0x3d,
  0x11, 0x96, 0xcb, 0xbc, 0xf5, 0x58, 0x03, 0xbe, 0x7d, 0x93, 0x50, 0x3f,
  0xee, 0x1a, 0x8b, 0xbd, 0x8b, 0x69, 0x18, 0x3f, 0xde, 0x5c, 0xdf, 0xbd,
  0x3a, 0x70, 0xb2, 0x3d, 0x9a, 0xd2, 0x89, 0x3c, 0xcd, 0x27, 0xe3, 0x3d,
  0xce, 0x3e, 0x1f, 0x3e, 0x6e, 0x1e, 0x07, 0xbe, 0x5c, 0x3b, 0xab, 0x3d,
  0x6d, 0x92, 0x85, 0xbd, 0x4f, 0x4e, 0xc6, 0x3e, 0x79, 0xc2, 0x74, 0xbb,
  0x9f, 0x08, 0x85, 0xbe, 0x34, 0x5d, 0x4a, 0xbc, 0x3f, 0x32, 0xa0, 0xbe,
  0x9f, 0xe0, 0xc3, 0x3e, 0x12, 0x76, 0x9c, 0xbd, 0x35, 0xf1, 0x1b, 0x3f,
  0x66, 0xd3, 0x0f, 0xbe, 0x78, 0x61, 0xba, 0x3e, 0x50, 0x2e, 0x54, 0x3e,
  0x04, 0xe1, 0x43, 0x3e, 0x8d, 0x8d, 0x16, 0xbe, 0x9e, 0x95, 0x90, 0xbe,
  0x6c, 0xc4, 0x0f, 0x3e, 0xa7, 0x3c, 0xb1, 0xbd, 0xa6, 0xcd, 0x8d, 0x3e,
  0x7f, 0x32, 0xae, 0xbd, 0x61, 0x25, 0x04, 0xbf, 0xaf, 0xca, 0x17, 0x3c,
  0x58, 0x90, 0x29, 0xbe, 0xf1, 0x67, 0x42, 0x3e, 0x9d, 0x45, 0xd0, 0xbd,
  0xad, 0x6e, 0x34, 0x3e, 0x26, 0x3c, 0xc6, 0xbd, 0x1a, 0x1a, 0xc6, 0x3e,
  0x69, 0x96, 0xee, 0x3e, 0xf1, 0x53, 0xca, 0x3d, 0x21, 0x9b, 0x20, 0xbf,
  0xd6, 0xcb, 0x1a, 0xbf, 0x81, 0x72, 0x65, 0x3c, 0xf7, 0xd4, 0xec, 0xbc,
  0xe6, 0x98, 0x09, 0x3f, 0x1e, 0x04, 0x97, 0x3d, 0xc1, 0x5e, 0x92, 0xbe,
  0x23, 0xbc, 0x33, 0xbc, 0x9d, 0x04, 0xcf, 0xbe, 0xe1, 0x8a, 0x1d, 0x3e,
  0xd6, 0xd6, 0x01, 0xbe, 0x41, 0x70, 0xce, 0x3d, 0x15, 0xd7, 0x3f, 0xbe,
  0x8d, 0x00, 0xb0, 0x3e, 0x76, 0x4d, 0xcc, 0x3e, 0xc9, 0x92, 0xc2, 0xbd,
  0x6f, 0x2c, 0x15, 0xbf, 0x32, 0x2d, 0x00, 0xbf, 0x2d, 0xfb, 0xbd, 0x3e,
  0x48, 0x6a, 0xca, 0xbd, 0x71, 0xf3, 0xde, 0x3e, 0x3a, 0xde, 0x06, 0xbe,
  0xb7, 0xd7, 0x99, 0xbc, 0x3b, 0x69, 0xc8, 0xbb, 0xc9, 0xfb, 0x40, 0xbe,
  0x91, 0x35, 0xd4, 0x3d, 0x0b, 0x2d, 0xa3, 0xbd, 0x71, 0xeb, 0xe9, 0x3d,
  0xa6, 0xb8, 0xdf, 0xbb, 0xe7, 0x81, 0x33, 0x3d, 0xbb, 0x94, 0x96, 0x3e,
  0xcd, 0x3c, 0x87, 0xbd, 0xc2, 0xb8, 0x94, 0xbe, 0xe1, 0xee, 0x52, 0xbe,
  0xad, 0xe4, 0xac, 0x3d, 0xf1, 0xfb, 0xfd, 0x3b, 0x6f, 0x4b, 0x8f, 0x3e,
  0xa5, 0x5e, 0x0e, 0x3d, 0x0a, 0x7f, 0x3a, 0xbe, 0x49, 0x21, 0xff, 0xbc,
  0xcc, 0x4a, 0xe4, 0xbd, 0x2e, 0xe7, 0xd0, 0xbd, 0xf1, 0x25, 0x1f, 0x3e,
  0x4a, 0x31, 0x3c, 0xbe, 0xdf, 0xd0, 0x8c, 0xbe, 0xa7, 0x93, 0x24, 0xbe,
  0xac, 0x64, 0xb8, 0x3c, 0x0e, 0x1a, 0x9a, 0xbe, 0x80, 0x2a, 0xba, 0x3d,
  0xd0, 0xe8, 0x9a, 0x3d, 0x35, 0x04, 0x1a, 0x3d, 0x50, 0xdc, 0xdc, 0xbd,
  0x94, 0x0d, 0x9e, 0x3c, 0xb1, 0x2b, 0xc3, 0xbc, 0x3c, 0x3f, 0x60, 0xbe,
  0x58, 0x2e, 0x2a, 0xbd, 0x05, 0xe1, 0x44, 0xbe, 0xfc, 0x9b, 0x85, 0xbd,
  0x3a, 0xa3, 0x1b, 0x3e, 0x64, 0x3d, 0x07, 0x3d, 0xe2, 0xc9, 0x3e, 0xbe,
  0x2b, 0xd2, 0x0f, 0x3e, 0x62, 0x81, 0xfa, 0xbd, 0xa1, 0x87, 0x2d, 0xbd,
  0x4c, 0x20, 0x50, 0x3e, 0x03, 0xe6, 0x0f, 0x3e, 0xdb, 0x6f, 0x2b, 0xbe,
  0x72, 0xfe, 0x26, 0xbe, 0x7e, 0x38, 0x2f, 0xbd, 0x80, 0x43, 0x72, 0x3e,
  0xe6, 0x22, 0x23, 0xbd, 0x25, 0x99, 0x32, 0xbe, 0xe1, 0x58, 0xa3, 0x3d,
  0xfc, 0x9b, 0x2d, 0x3e, 0xdc, 0x37, 0xf1, 0xbd, 0x8b, 0x92, 0xb5, 0x3d,
  0x58, 0x7a, 0x0c, 0xbe, 0xfb, 0x08, 0x2c, 0xbe, 0x22, 0xff, 0x6a, 0xbe,
  0x8d, 0x77, 0x77, 0xbe, 0x2f, 0x1a, 0x2d, 0x3e, 0x40, 0xf1, 0x9c, 0x3d,
  0x01, 0x46, 0xa6, 0x39, 0x68, 0x49, 0x9e, 0xbd, 0x64, 0x4d, 0x2d, 0x3d,
  0x91, 0x6a, 0x82, 0xbd, 0x0d, 0xbf, 0x58, 0x3d, 0x7f, 0xf9, 0x6f, 0xbe,
  0x12, 0x37, 0xca, 0x3d, 0xe6, 0x8d, 0xeb, 0x3d, 0x80, 0x6f, 0x0b, 0xbe,
  0x5f, 0x95, 0xd2, 0xbc, 0x70, 0x47, 0xca, 0x3c, 0x1b, 0x85, 0x25, 0x3e,
  0x01, 0x45, 0x6a, 0xbe, 0x6c, 0x41, 0xa0, 0xbe, 0x19, 0x78, 0xdb, 0x3d,
  0xeb, 0xd8, 0x80, 0xbe, 0xdd, 0xdc, 0x30, 0x3d, 0x3d, 0x56, 0x99, 0xbe,
  0xb7, 0x76, 0x3a, 0x3e, 0x36, 0xc5, 0x07, 0xbe, 0x51, 0x86, 0x48, 0xbd,
  0xbf, 0x0c, 0x94, 0xbc, 0xbc, 0xea, 0xaf, 0xbc, 0x46, 0xb7, 0x8c, 0xbd,
  0xbf, 0x7a, 0xd4, 0x3c, 0x6d, 0xbe, 0xb3, 0xbd, 0x3d, 0x55, 0x5b, 0xbe,
  0xdd, 0x30, 0xe1, 0x3d, 0x0c, 0x29, 0x1c, 0xbe, 0xa3, 0x73, 0xab, 0xbc,
  0x57, 0x8d, 0xde, 0x3d, 0xcd, 0x3e, 0x2b, 0xbb, 0x34, 0xa0, 0x91, 0xbd,
  0xf0, 0xbb, 0x09, 0x3d, 0x25, 0x6e, 0xd6, 0x3d, 0x6e, 0x59, 0x4f, 0xbe,
  0x7c, 0x37, 0x28, 0xbd, 0x0f, 0xb4, 0x75, 0xbe, 0xa9, 0x99, 0x62, 0xbe,
  0x10, 0xe9, 0x65, 0xbe, 0x18, 0x20, 0x7c, 0xbe, 0x41, 0x9f, 0x60, 0xbe,
  0x3c, 0x2c, 0xe9, 0xbd, 0x74, 0x9a, 0x3c, 0xbe, 0x34, 0x3d, 0x40, 0xbd,
  0x65, 0x8c, 0x7b, 0xbd, 0xaf, 0xb4, 0x5f, 0xbe, 0x9d, 0x43, 0x8b, 0x3c,
  0xc7, 0x62, 0x29, 0xbe, 0x31, 0x4c, 0x4d, 0xbe, 0x5e, 0x8d, 0xf6, 0x3d,
  0xc4, 0xe3, 0x53, 0x3d, 0x6b, 0x61, 0xb5, 0x3d, 0xba, 0x25, 0x8f, 0xbe,
  0xb5, 0x55, 0xb8, 0x3d, 0xb5, 0x37, 0x2b, 0xbe, 0x95, 0x1b, 0x2e, 0xbe,
  0x97, 0xae, 0x86, 0xbd, 0x98, 0x21, 0xc9, 0x3a, 0xd8, 0xb1, 0x55, 0xbd,
  0xe9, 0xa9, 0x33, 0xbe, 0x71, 0x7c, 0x57, 0xbe, 0x90, 0x4c, 0x42, 0xbe,
  0x06, 0x49, 0xbf, 0x3d, 0x97, 0x6d, 0x3d, 0xbe, 0x54, 0x58, 0xc7, 0xbc,
  0x7c, 0x6d, 0xe5, 0x3d, 0x36, 0x68, 0xa0, 0xbe, 0x8f, 0xfc, 0x56, 0x3c,
  0xf0, 0x23, 0x21, 0x3d, 0xaa, 0xd7, 0xcd, 0xbe, 0x6f, 0xde, 0xe6, 0xbd,
  0x6b, 0x92, 0x2f, 0x3e, 0xa3, 0xa2, 0x8d, 0xbe, 0x28, 0x54, 0xc5, 0x3c,
  0xf5, 0xcd, 0x26, 0xbf, 0x5b, 0xb0, 0x13, 0xbf, 0x71, 0x23, 0x80, 0xbe,
  0xd1, 0xd6, 0x7f, 0xbd, 0x26, 0xe1, 0x86, 0xbe, 0xc0, 0xb3, 0xe7, 0xbe,
  0x2a, 0x9a, 0x44, 0x3d, 0xf8, 0xb1, 0x96, 0xbe, 0x7d, 0xd5, 0x01, 0xbe,
  0xf9, 0x9d, 0x5f, 0x3e, 0x30, 0xaa, 0x20, 0x3d, 0x52, 0x62, 0x97, 0x3c,
  0xe1, 0xbd, 0xa0, 0xbe, 0xb8, 0x8c, 0x36, 0x3e, 0x5b, 0x57, 0x9a, 0xbe,
  0x84, 0xad, 0xbe, 0x3d, 0x47, 0x58, 0xc7, 0xbe, 0x64, 0x31, 0xc3, 0xbe,
  0xd9, 0xe1, 0x17, 0x3e, 0xa4, 0x59, 0x17, 0x3d, 0xa6, 0xbb, 0x86, 0x3e,
  0x2b, 0x38, 0x9d, 0x3e, 0x82, 0x54, 0xb5, 0x3d, 0x76, 0x52, 0x2b, 0xbf,
  0x09, 0x1c, 0x8a, 0xbd, 0x73, 0xcf, 0x3a, 0x3e, 0x1d, 0x6e, 0xd5, 0x3d,
  0xf2, 0x9e, 0xf1, 0x3c, 0x94, 0x52, 0x68, 0xbe, 0x26, 0xab, 0xea, 0x3d,
  0x0a, 0x4e, 0x81, 0xbd, 0x86, 0x98, 0xe7, 0x3d, 0x6a, 0x33, 0x64, 0xbc,
  0x62, 0x0e, 0x7a, 0xbd, 0xd3, 0x1a, 0x6c, 0x3e, 0xd6, 0xb6, 0x16, 0xbe,
  0xbb, 0x08, 0xa3, 0x3e, 0x19, 0x7c, 0x75, 0xbd, 0x5a, 0x68, 0x2e, 0x3d,
  0xfb, 0xc0, 0x10, 0xbf, 0x8a, 0x93, 0xa5, 0x3b, 0xf8, 0xba, 0x9f, 0x3e,
  0xc9, 0xa2, 0xb7, 0x3d, 0xc2, 0xde, 0xe5, 0xbd, 0x45, 0xe0, 0x2c, 0xbe,
  0x2e, 0x55, 0x21, 0x3d, 0xc3, 0xac, 0x2f, 0xbd, 0xb6, 0xcc, 0x25, 0x3e,
  0x37, 0x4e, 0xe0, 0xbd, 0xe0, 0xaa, 0xed, 0x3d, 0x87, 0xc5, 0xf5, 0x3d,
  0x76, 0x48, 0x57, 0x3d, 0xdf, 0xd0, 0x8c, 0x3e, 0xc5, 0xc9, 0xfb, 0xbc,
  0x01, 0xfa, 0x87, 0x3d, 0x4b, 0xe1, 0x90, 0xbe, 0x9a, 0x51, 0x03, 0xbe,
  0xf4, 0x13, 0x58, 0x3e, 0xec, 0xe2, 0x9f, 0x3d, 0x49, 0xf0, 0xfb, 0xbd,
  0xd6, 0xa4, 0xf7, 0xbe, 0x55, 0xe4, 0x23, 0x3d, 0xc5, 0xc8, 0xb6, 0xbe,
  0x51, 0x08, 0x86, 0x3d, 0x99, 0x64, 0xc1, 0x3c, 0x67, 0xac, 0x9d, 0xbe,
  0xe8, 0x41, 0xe9, 0x3d, 0x9b, 0xaa, 0x88, 0x3d, 0xbb, 0x66, 0x4e, 0x3e,
  0x84, 0x2d, 0x03, 0x3e, 0x5d, 0xfb, 0x0e, 0x3d, 0xbd, 0x66, 0x16, 0xbf,
  0xe7, 0x93, 0x1e, 0xbf, 0x10, 0x99, 0x11, 0x3e, 0x0d, 0xf9, 0x4b, 0x3d,
  0x2c, 0x29, 0xc1, 0xbc, 0x86, 0x77, 0x4a, 0xbf, 0x6e, 0x3c, 0x7c, 0x3e,
  0x7e, 0xf4, 0xbf, 0xbe, 0x6c, 0x65, 0xb9, 0x3c, 0x1c, 0x05, 0xcd, 0xbd,
  0xe9, 0x6d, 0x52, 0xbe, 0x28, 0x79, 0xaf, 0x3d, 0xfe, 0x88, 0x45, 0xbd,
  0x51, 0x9a, 0x0b, 0x3e, 0xd2, 0xc8, 0x80, 0xbe, 0x23, 0x8f, 0xba, 0x3d,
  0x39, 0xed, 0xa0, 0xbe, 0x63, 0x92, 0x2a, 0x3c, 0x77, 0x92, 0x34, 0xbc,
  0x94, 0xe3, 0xb5, 0x3c, 0x7a, 0x8f, 0x8d, 0xbe, 0x84, 0x03, 0x60, 0xbe,
  0xc4, 0x51, 0x2b, 0x3e, 0xf3, 0x06, 0x73, 0xbe, 0x0d, 0x70, 0x06, 0xbd,
  0xa4, 0x86, 0x03, 0xbd, 0xc7, 0x0a, 0xb9, 0xbe, 0xa5, 0x32, 0xae, 0xbd,
  0x0b, 0xfd, 0xf7, 0xbd, 0xcd, 0x20, 0x62, 0x3d, 0x62, 0x41, 0x83, 0xbd,
  0x0a, 0x48, 0x54, 0x3c, 0x67, 0x8d, 0xa7, 0xbe, 0xa5, 0xd2, 0x18, 0xbe,
  0x39, 0x29, 0xce, 0xbd, 0x0f, 0x3a, 0x23, 0xbe, 0x3f, 0x24, 0x07, 0x3e,
  0xe2, 0xee, 0xae, 0x3b, 0xfb, 0xb8, 0x34, 0xbe, 0x6c, 0xca, 0x84, 0xbd,
  0xcf, 0x4d, 0xaa, 0xbd, 0x48, 0x48, 0x94, 0x3d, 0x15, 0x37, 0x9f, 0xbd,
  0x83, 0x61, 0xa4, 0xbe, 0x55, 0xa1, 0xae, 0xbd, 0x6d, 0x52, 0xc6, 0x3d,
  0xf4, 0x3b, 0xbf, 0x3d, 0xf7, 0x52, 0xdd, 0xbd, 0x6e, 0xd2, 0x04, 0xbd,
  0x0b, 0xb7, 0x8e, 0xbd, 0xc8, 0x73, 0x2e, 0xbe, 0x76, 0x84, 0x20, 0xbe,
  0x3f, 0xe1, 0xaf, 0x3d, 0x9f, 0xfd, 0xf6, 0x3d, 0xc0, 0x29, 0xdb, 0x3d,
  0xdf, 0x53, 0x3e, 0xbe, 0xa4, 0x38, 0x7a, 0xbe, 0x2a, 0x08, 0x6a, 0xbe,
  0xf9, 0xad, 0xf2, 0x3d, 0x2e, 0xa5, 0xc8, 0xbe, 0x9b, 0xc6, 0x35, 0x3e,
  0x53, 0x01, 0xed, 0x3d, 0xc6, 0x1b, 0x88, 0xbc, 0x0f, 0xd1, 0x2a, 0x3d,
  0xc8, 0x33, 0xac, 0x3d, 0x3d, 0x56, 0xe6, 0x3d, 0xd9, 0x91, 0x7f, 0x3d,
  0xa1, 0xb9, 0xf5, 0xbd, 0x03, 0x92, 0x57, 0xbe, 0xfd, 0x5b, 0x82, 0x3d,
  0x07, 0x47, 0x48, 0xbd, 0xf7, 0x1e, 0x03, 0x3d, 0xd4, 0x86, 0x22, 0xbd,
  0xd7, 0x80, 0x2f, 0xbe, 0x35, 0x4d, 0xf0, 0xbd, 0xf1, 0x3a, 0x61, 0xbd,
  0x79, 0xb0, 0x12, 0x3e, 0x54, 0x90, 0x22, 0xbe, 0x49, 0x21, 0x60, 0xbd,
  0xe1, 0xc2, 0xf1, 0xbd, 0xd8, 0x83, 0x12, 0xbe, 0xa3, 0xb8, 0xdd, 0x3d,
  0xe6, 0x12, 0x58, 0xbe, 0xaa, 0xb7, 0x31, 0xbe, 0x61, 0xce, 0x1f, 0x3d,
  0x57, 0xdb, 0x3f, 0xbd, 0x6d, 0xd3, 0xda, 0x3d, 0xad, 0x9e, 0xba, 0x3d,
  0xce, 0x9d, 0x24, 0xbe, 0x93, 0x16, 0x4e, 0x3d, 0xfa, 0x3b, 0x0a, 0x3e,
  0x86, 0x75, 0xdf, 0xbe, 0x6c, 0x4f, 0xe1, 0xbd, 0x07, 0x1f, 0xb9, 0x3d,
  0xc8, 0xa3, 0x1a, 0x3d, 0xd0, 0xc2, 0x3f, 0xbe, 0x10, 0x75, 0x10, 0x3e,
  0x69, 0xe2, 0x35, 0xbe, 0xe6, 0xa1, 0x9e, 0xbd, 0x90, 0xd1, 0x25, 0x3e,
  0x59, 0xc7, 0xbd, 0x3d, 0xbf, 0x94, 0x0d, 0x3d, 0x72, 0x00, 0x9c, 0xbd,
  0x03, 0x1b, 0x05, 0xbe, 0xe3, 0xb2, 0x18, 0xbe, 0xc4, 0x5c, 0xf7, 0xbd,
  0xa0, 0x2a, 0xae, 0xbd, 0xfc, 0x6c, 0xe0, 0xbe, 0x88, 0xb8, 0x14, 0x3e,
  0x06, 0x30, 0x13, 0x3e, 0x8e, 0xd8, 0x1f, 0x3d, 0xdb, 0x76, 0x9e, 0xbd,
  0xef, 0xa1, 0x54, 0xbd, 0x02, 0x83, 0x26, 0x3c, 0x20, 0x4a, 0xaa, 0x3c,
  0xb8, 0x1b, 0xec, 0xbc, 0xfd, 0x52, 0xb1, 0x3d, 0xf9, 0x6d, 0x88, 0xbe,
  0x0a, 0x75, 0xb8, 0xbd, 0xe6, 0xf0, 0xa6, 0x3d, 0xf4, 0xe4, 0x27, 0x3d,
  0x6f, 0x1e, 0x39, 0xbe, 0x92, 0x05, 0x9f, 0x3d, 0xf4, 0xf3, 0x0d, 0xbe,
  0x91, 0x2e, 0xa6, 0xbd, 0x87, 0x50, 0xbc, 0xbd, 0x19, 0x4f, 0x6d, 0xbe,
  0x9d, 0x3c, 0xd8, 0x3d, 0x7b, 0xbb, 0xd1, 0xbc, 0x86, 0x19, 0x4b, 0xbe,
  0x48, 0xae, 0xa7, 0x3b, 0x92, 0x6f, 0x34, 0xbe, 0xee, 0x41, 0x15, 0x3c,
  0xab, 0xd0, 0x3f, 0xbe, 0xc6, 0x09, 0x07, 0xbe, 0x85, 0x8c, 0xe9, 0x3d,
  0x3d, 0x1a, 0xe1, 0xbc, 0x6a, 0xa4, 0x2b, 0xbe, 0x8c, 0x22, 0x83, 0xbd,
  0x79, 0x42, 0x46, 0xbe, 0x65, 0x76, 0x42, 0xbe, 0xe6, 0x05, 0xd8, 0x3d,
  0x4d, 0x06, 0x24, 0x3e, 0xc3, 0x42, 0x13, 0x3d, 0xd1, 0x85, 0x61, 0xbe,
  0x10, 0x77, 0xb1, 0xbe, 0xc3, 0x8a, 0x07, 0xbe, 0xd5, 0xc7, 0x06, 0xbe,
  0x9a, 0x0f, 0x3e, 0x3d, 0x61, 0xa0, 0x1e, 0x3d, 0xe2, 0x11, 0xa2, 0xbe,
  0xae, 0x7f, 0xc2, 0xbd, 0xf8, 0x24, 0x88, 0x3a, 0xaa, 0x63, 0x1e, 0xbe,
  0x86, 0xec, 0x2c, 0x3d, 0x80, 0x77, 0x98, 0x3d, 0xc8, 0xd9, 0xfe, 0x3c,
  0x08, 0x2c, 0x9a, 0xbc, 0x1b, 0xfa, 0x2a, 0x3d, 0xbd, 0x39, 0x72, 0xbe,
  0x13, 0xfd, 0xeb, 0xbd, 0x48, 0x45, 0xac, 0xbe, 0x4e, 0x3f, 0x03, 0xbe,
  0xf0, 0x90, 0xe8, 0xbd, 0x29, 0x8c, 0x17, 0xbd, 0x21, 0x8e, 0x50, 0xbe,
  0x7d, 0x6d, 0xa2, 0xbd, 0xe3, 0xe9, 0xe1, 0x3d, 0x83, 0x27, 0xf8, 0xbc,
  0xac, 0x4a, 0x68, 0xbe, 0x95, 0xca, 0xf5, 0x3d, 0xbc, 0x8f, 0x36, 0xbd,
  0x34, 0x2a, 0x8b, 0xbd, 0x67, 0xaf, 0x52, 0xbd, 0xf1, 0x04, 0x6a, 0xbe,
  0xe0, 0x50, 0xe2, 0xbe, 0xf1, 0x1b, 0x13, 0x3e, 0xc7, 0xac, 0xcc, 0xbe,
  0x40, 0xf9, 0x90, 0xbd, 0xd4, 0xf4, 0x87, 0xbe, 0xfb, 0x37, 0x78, 0xbd,
  0xe1, 0xd1, 0x4e, 0xbe, 0xe7, 0x14, 0x4f, 0xbe, 0x88, 0x79, 0x0d, 0x3d,
  0x94, 0xf5, 0x5e, 0xbe, 0x11, 0xac, 0xb4, 0xbe, 0xab, 0xaf, 0x15, 0x3d,
  0xc4, 0x51, 0xab, 0xbd, 0x65, 0x82, 0xd7, 0x3d, 0x6f, 0x30, 0x8a, 0xbe,
  0x1d, 0xc1, 0x82, 0xbd, 0x91, 0xda, 0x5c, 0xbe, 0x34, 0x00, 0x7a, 0xbd,
  0x01, 0xba, 0x4a, 0x3c, 0xab, 0x71, 0xe1, 0xbd, 0xeb, 0x27, 0x4c, 0xbe,
  0xe0, 0x4d, 0x88, 0xbe, 0xb6, 0x28, 0x15, 0xbf, 0xe2, 0x43, 0xb1, 0xbd,
  0x5c, 0xda, 0xbd, 0xbe, 0x7b, 0x44, 0x88, 0xbc, 0x44, 0x87, 0x64, 0xbe,
  0xc2, 0x4e, 0x38, 0xbe, 0x95, 0x37, 0x39, 0xbe, 0x91, 0xe1, 0x58, 0x3d,
  0x34, 0xbe, 0xb0, 0xbd, 0xeb, 0x59, 0x04, 0xbe, 0x05, 0xf4, 0xba, 0xbe,
  0x2e, 0xb7, 0x2d, 0xbc, 0x97, 0xa6, 0xc6, 0x3e, 0x5f, 0xf4, 0x66, 0x3d,
  0x6f, 0x2f, 0xd2, 0xbd, 0xa1, 0xa3, 0x4c, 0x3e, 0xb0, 0xd1, 0x7f, 0x3d,
  0x37, 0x54, 0xce, 0xbc, 0xca, 0xfc, 0x41, 0x3e, 0x5a, 0x59, 0x9d, 0xbe,
  0xf2, 0x5a, 0x85, 0xbe, 0x85, 0x63, 0x75, 0x3d, 0xea, 0x91, 0xbe, 0xbc,
  0xb6, 0x40, 0x1e, 0xbc, 0xc4, 0xb9, 0x30, 0xbe, 0x03, 0xb6, 0xde, 0x3d,
  0xdb, 0x96, 0x3e, 0xbe, 0x56, 0xae, 0x8b, 0x3d, 0x7a, 0x24, 0x9f, 0x3e,
  0x99, 0x33, 0xb3, 0xbd, 0xed, 0x45, 0x9a, 0x3d, 0xc0, 0xe5, 0x14, 0x3e,
  0x5c, 0xb4, 0x23, 0x3e, 0x34, 0x3b, 0xfd, 0xbd, 0x45, 0x70, 0x79, 0x3d,
  0x6a, 0x11, 0x0d, 0x3d, 0x60, 0x74, 0x78, 0xbe, 0x64, 0x79, 0x47, 0xbe,
  0x37, 0xe6, 0x1f, 0x3e, 0x7d, 0x35, 0x7a, 0x3e, 0x3b, 0x9c, 0xed, 0x3d,
  0xda, 0x38, 0x61, 0xbe, 0xea, 0xf5, 0xe0, 0xbd, 0x94, 0xa3, 0x31, 0xbd,
  0xb1, 0xc9, 0x8d, 0x3e, 0xc3, 0x64, 0x54, 0x3d, 0x4b, 0x18, 0x97, 0xbd,
  0x28, 0x54, 0xb4, 0x3e, 0xbe, 0x3f, 0xde, 0x3e, 0x03, 0x44, 0x1b, 0x3d,
  0x77, 0xb8, 0xce, 0x3d, 0x3a, 0x71, 0x35, 0x3d, 0x80, 0x7e, 0x73, 0xbc,
  0x26, 0x07, 0xfd, 0xbb, 0x9b, 0x25, 0x0a, 0x3d, 0x92, 0x5e, 0x3c, 0x3e,
  0xf3, 0xeb, 0x0d, 0xbd, 0xb9, 0x45, 0x44, 0xbc, 0x7a, 0x12, 0xc5, 0x3d,
  0xca, 0xad, 0xaf, 0xbb, 0xce, 0x9c, 0x82, 0xbe, 0x33, 0x4b, 0xfd, 0x3d,
  0x26, 0xa3, 0xc9, 0xbd, 0x60, 0x57, 0xda, 0xbc, 0x10, 0x30, 0x22, 0xbe,
  0x25, 0xe4, 0x0b, 0xbe, 0x96, 0x65, 0x67, 0xbd, 0xca, 0x12, 0x82, 0xbd,
  0x26, 0xee, 0x4a, 0xbe, 0x82, 0x14, 0x3e, 0x3e, 0xf1, 0x29, 0x7c, 0xbd,
  0x2f, 0x4d, 0x31, 0x3c, 0x0e, 0x97, 0x93, 0xbd, 0x9a, 0x11, 0x50, 0x3c,
  0x6a, 0x93, 0x16, 0xbe, 0x46, 0xb1, 0x62, 0xbe, 0xfa, 0xb5, 0x01, 0x3a,
  0x44, 0x16, 0x2f, 0x3a, 0xb3, 0x5c, 0x0f, 0xbe, 0x00, 0xb3, 0x51, 0xbe,
  0x54, 0xf1, 0x12, 0x3e, 0xa9, 0xbc, 0x86, 0x3d, 0x88, 0xf3, 0x63, 0x3c,
  0xed, 0x7a, 0x70, 0xbe, 0x8d, 0x9f, 0xa1, 0xbd, 0x7b, 0xab, 0x91, 0xbd,
  0xdd, 0x24, 0x53, 0xbe, 0x3d, 0x7e, 0x7a, 0x3d, 0xb9, 0x2b, 0x6f, 0xbd,
  0x02, 0xbc, 0x2d, 0x3e, 0xcb, 0xfb, 0x46, 0xbe, 0x15, 0x5b, 0x1a, 0x3e,
  0xf7, 0xc2, 0x16, 0xbd, 0xfb, 0xec, 0x75, 0x3c, 0x9f, 0xe5, 0x88, 0xbd,
  0xa1, 0x9e, 0xa1, 0x3d, 0x29, 0x52, 0xe1, 0xb9, 0x32, 0xa4, 0xc5, 0x3b,
  0x0d, 0x17, 0x45, 0xbe, 0xa4, 0x98, 0xcb, 0x3d, 0x2d, 0x1b, 0x08, 0x3d,
  0xe8, 0xe3, 0xee, 0x3d, 0xcb, 0xa9, 0xcf, 0xbd, 0x5d, 0x24, 0x4a, 0xbe,
  0xcc, 0x39, 0x0d, 0x3e, 0x7f, 0xbc, 0x9e, 0xbb, 0x88, 0x23, 0x3b, 0xbe,
  0x34, 0x7b, 0x28, 0x3e, 0xd4, 0xe5, 0x0b, 0x3e, 0xdf, 0x79, 0x65, 0x3c,
  0x29, 0xc1, 0x75, 0xbd, 0x8e, 0x2b, 0x13, 0xbd, 0xc7, 0x9c, 0x70, 0xbe,
  0x2d, 0xc3, 0xe5, 0x3d, 0xab, 0x73, 0x0e, 0xbe, 0xb2, 0x71, 0x21, 0xbd,
  0x28, 0xd4, 0x93, 0xbd, 0x9a, 0x0e, 0x07, 0xbd, 0xcf, 0x4b, 0x7c, 0xbe,
  0x3e, 0xd8, 0xfa, 0x3c, 0x83, 0x20, 0x62, 0x3c, 0xaa, 0x01, 0xbe, 0x3d,
  0x73, 0x7b, 0x02, 0xbe, 0x78, 0x81, 0xca, 0xbd, 0x45, 0xfe, 0xb7, 0x3d,
  0x41, 0x4a, 0x03, 0xbd, 0x42, 0xfb, 0x1e, 0x3d, 0xef, 0xd1, 0x8d, 0x3d,
  0xcb, 0x6a, 0x0c, 0xbd, 0x72, 0xcc, 0x04, 0xbe, 0x7b, 0x5f, 0xb6, 0xbd,
  0xc9, 0xa9, 0x44, 0x3d, 0xa8, 0x28, 0x10, 0x3d, 0xd2, 0xe9, 0xcd, 0xbc,
  0x73, 0x45, 0xb2, 0xbd, 0x1b, 0x1a, 0xa9, 0x3b, 0x83, 0x6e, 0x4b, 0xbe,
  0x36, 0xb0, 0x2a, 0x3e, 0x26, 0x20, 0x6a, 0xbe, 0x6a, 0x09, 0xca, 0xbc,
  0xa4, 0xc9, 0x48, 0x3c, 0x9c, 0xec, 0x80, 0xbe, 0xdb, 0x5b, 0x0f, 0xbe,
  0x8d, 0x3e, 0x0d, 0x3e, 0xd0, 0xc7, 0x09, 0x3d, 0x89, 0x8b, 0x1b, 0x3d,
  0x11, 0xb2, 0x47, 0x3d, 0x5e, 0x86, 0x41, 0xbe, 0xc2, 0x61, 0x1a, 0xbe,
  0xc8, 0x63, 0x67, 0x3d, 0x96, 0xcc, 0x9d, 0xbe, 0xe7, 0x92, 0x24, 0x3d,
  0xe4, 0xdc, 0x25, 0xbc, 0xef, 0x9d, 0x8e, 0x39, 0x1f, 0xa3, 0x15, 0x3d,
  0x3c, 0x7e, 0x65, 0xbd, 0xb1, 0xa4, 0xda, 0xbd, 0x3b, 0x1a, 0x27, 0x3d,
  0x2a, 0x34, 0x90, 0xbe, 0x2b, 0x29, 0xef, 0xbd, 0xc6, 0x30, 0x4c, 0xbe,
  0x43, 0xec, 0x7d, 0xbe, 0xfb, 0x90, 0x41, 0xbc, 0x58, 0x9d, 0xd8, 0xbd,
  0xfe, 0x4e, 0x67, 0xbd, 0x2e, 0x0c, 0xce, 0x3d, 0x5c, 0x7c, 0x67, 0xbe,
  0x7c, 0xa0, 0x11, 0x3e, 0x7f, 0xd9, 0xb6, 0x3c, 0xa0, 0x6d, 0x40, 0x3e,
  0x69, 0x7a, 0x1b, 0xbe, 0xc8, 0xde, 0x4b, 0xbe, 0x36, 0xc0, 0x20, 0x3d,
  0xdf, 0xb2, 0x58, 0x3c, 0x40, 0xa0, 0x59, 0xbe, 0x7c, 0x2f, 0xc5, 0x3d,
  0x85, 0xdb, 0x56, 0xbe, 0xfd, 0xac, 0x28, 0x3d, 0xd4, 0x87, 0x44, 0x3e,
  0x03, 0x20, 0x0d, 0xbe, 0x35, 0xee, 0x2b, 0x3e, 0x94, 0xf0, 0x16, 0xbd,
  0x2a, 0x60, 0x50, 0xbe, 0xff, 0xd9, 0x0d, 0xbe, 0xa4, 0x5c, 0x71, 0xbe,
  0x93, 0x9f, 0x0a, 0xbe, 0xdc, 0xca, 0x19, 0xbe, 0x71, 0x60, 0x56, 0xbe,
  0x00, 0x92, 0x38, 0xbe, 0x62, 0xc5, 0x90, 0xbd, 0x23, 0x4f, 0x87, 0x3d,
  0xaf, 0x47, 0xbb, 0x3d, 0xb6, 0x62, 0x09, 0xbe, 0xcd, 0x19, 0x95, 0xbd,
  0xbe, 0x6d, 0x21, 0xbe, 0xc0, 0x66, 0x39, 0xbd, 0xd8, 0x1e, 0xec, 0xbd,
  0x68, 0xf4, 0x49, 0xbe, 0x40, 0x2b, 0x43, 0xbe, 0x5a, 0x72, 0x5f, 0x3d,
  0xb2, 0xcb, 0xb8, 0x3d, 0x7d, 0xd5, 0xd4, 0x3c, 0x39, 0x41, 0x90, 0xbe,
  0x4b, 0x60, 0x78, 0xbe, 0xa1, 0x41, 0x92, 0xbd, 0x5d, 0x0d, 0x4e, 0xbe,
  0x6c, 0x33, 0x74, 0xbc, 0xcd, 0xf9, 0x0c, 0xbe, 0xd1, 0x72, 0xf5, 0xbd,
  0x50, 0x30, 0x2a, 0x3e, 0x21, 0x1c, 0x3c, 0xbe, 0x56, 0x9c, 0x52, 0xbe,
  0x1d, 0x5c, 0xb8, 0xbd, 0xce, 0x2d, 0x79, 0x3d, 0xca, 0xb3, 0xf2, 0x3d,
  0x87, 0x7c, 0xd1, 0xbd, 0xf7, 0x08, 0x12, 0x3e, 0x4f, 0xd4, 0xf0, 0x3d,
  0x0f, 0x2b, 0x63, 0xbe, 0xe4, 0x22, 0x68, 0x3d, 0x7f, 0xe9, 0xe9, 0xbd,
  0x75, 0xaa, 0xc2, 0x3d, 0x56, 0xbb, 0x17, 0xbd, 0x29, 0x80, 0x36, 0xbe,
  0xd8, 0xc7, 0x1d, 0x3e, 0x70, 0xec, 0x03, 0x3e, 0x80, 0x29, 0x63, 0xbe,
  0xf3, 0xe3, 0x26, 0xbe, 0xeb, 0x0d, 0xf6, 0xbc, 0xe5, 0x75, 0x1d, 0xbc,
  0xf5, 0xeb, 0x91, 0xbd, 0xe6, 0xfb, 0x71, 0xbd, 0x1a, 0x20, 0x73, 0xbe,
  0x2c, 0xe2, 0x0a, 0xba, 0x77, 0xed, 0x4a, 0x3b, 0x2a, 0x8d, 0x11, 0x3e,
  0xab, 0xa2, 0x5c, 0xbe, 0x2f, 0xe1, 0x02, 0xbe, 0x22, 0xa2, 0x13, 0xbd,
  0x98, 0xfc, 0x12, 0xbe, 0x95, 0xbb, 0x97, 0x3d, 0xde, 0xdf, 0xf7, 0x3c,
  0x41, 0xa7, 0xce, 0x3d, 0x08, 0x99, 0xb5, 0xbd, 0x57, 0xf5, 0xe4, 0xbd,
  0x17, 0x9f, 0x14, 0xbe, 0x5d, 0xed, 0x30, 0x3d, 0x62, 0xe6, 0xcc, 0x3d,
  0xb2, 0xb7, 0x87, 0xbd, 0x6e, 0xa9, 0x1c, 0xbe, 0x26, 0xd5, 0x0a, 0xbe,
  0xa0, 0xc4, 0x8d, 0xbd, 0xa3, 0xf9, 0x62, 0xbd, 0xac, 0x93, 0x16, 0xbd,
  0xc0, 0x5a, 0x6c, 0x3d, 0xb4, 0x5c, 0x64, 0xbe, 0x98, 0x16, 0x05, 0x3e,
  0x38, 0x0d, 0x3f, 0xbe, 0x54, 0x4a, 0x1d, 0xbd, 0xab, 0x89, 0x78, 0xbe,
  0xad, 0x58, 0x0d, 0xbe, 0x45, 0x92, 0xb2, 0x3d, 0x47, 0x0c, 0x25, 0xbe,
  0x73, 0xfb, 0xc3, 0xbd, 0x3b, 0x6f, 0xb2, 0xbc, 0x65, 0xef, 0xc2, 0x3d,
  0x6f, 0x09, 0x71, 0xbe, 0x4d, 0x31, 0xf0, 0xbd, 0x48, 0x30, 0x95, 0xbd,
  0xe5, 0x6c, 0x2f, 0xbe, 0xe3, 0x40, 0xab, 0xbe, 0x4b, 0xc8, 0xbd, 0xbd,
  0xb2, 0x38, 0x11, 0xbe, 0x74, 0xf4, 0x77, 0xbe, 0xab, 0xe7, 0x24, 0x3d,
  0xb1, 0x71, 0x19, 0xbd, 0x7c, 0x11, 0x94, 0xbe, 0x5f, 0x5f, 0xf7, 0x3d,
  0xd3, 0x76, 0x8c, 0xbe, 0x62, 0x51, 0x76, 0xbe, 0x26, 0xd6, 0x28, 0xbe,
  0x10, 0xc6, 0x70, 0xbe, 0xd8, 0x6d, 0x88, 0xbe, 0x7b, 0xab, 0xe4, 0xbc,
  0x80, 0x99, 0x81, 0x3e, 0x82, 0xcf, 0xbc, 0x3b, 0x42, 0x62, 0xcc, 0xbd,
  0x1c, 0x0b, 0xd3, 0x3e, 0x7e, 0x20, 0x91, 0x3c, 0xa2, 0xb9, 0x61, 0xbe,
  0x98, 0x6b, 0x97, 0x3d, 0x72, 0xc9, 0x3b, 0x3e, 0x96, 0xc8, 0x92, 0xbb,
  0x04, 0xc4, 0x39, 0xbe, 0x02, 0x34, 0x29, 0x3e, 0x39, 0x84, 0xd9, 0x3d,
  0xcc, 0xc7, 0x9b, 0x3e, 0xfd, 0xd5, 0xf0, 0xbd, 0xaa, 0x3e, 0x61, 0xbe,
  0x78, 0x52, 0xc9, 0x3d, 0x69, 0xaf, 0xbe, 0x3e, 0xf2, 0xd1, 0x64, 0xbe,
  0x5d, 0x75, 0x84, 0xbc, 0x51, 0xb8, 0x02, 0x3e, 0x9b, 0xb2, 0x9b, 0xbe,
  0x23, 0x57, 0xa8, 0x3d, 0x23, 0xf1, 0x83, 0xbd, 0xe3, 0x27, 0x28, 0xbe,
  0x89, 0x3d, 0x57, 0xbd, 0x27, 0x10, 0x4d, 0x3d, 0x09, 0x85, 0xd1, 0x3b,
  0x59, 0xe2, 0x2e, 0x3e, 0x16, 0x9a, 0xa7, 0xbc, 0x7e, 0xa4, 0x2f, 0xbd,
  0x42, 0x8b, 0x89, 0xbd, 0x5d, 0x5a, 0x54, 0xbe, 0x79, 0xbf, 0x6f, 0x3e,
  0x6e, 0x44, 0xbb, 0xbe, 0x5c, 0x72, 0x94, 0xbd, 0x10, 0x37, 0x8e, 0x3e,
  0x8c, 0x39, 0x3f, 0xbf, 0x70, 0x74, 0x43, 0xbe, 0xe2, 0x6e, 0x17, 0xbf,
  0x73, 0xd4, 0xf2, 0xbd, 0x51, 0x05, 0x16, 0x3e, 0xc0, 0xe1, 0x56, 0x3d,
  0x47, 0xa5, 0x92, 0xbe, 0x90, 0xf2, 0x3e, 0x3c, 0x22, 0x5b, 0xba, 0xbe,
  0x90, 0x6b, 0xb1, 0xbd, 0x2a, 0x23, 0x79, 0x3d, 0xe3, 0xe2, 0x60, 0xbd,
  0x84, 0xa7, 0xf4, 0xbe, 0x32, 0xeb, 0x40, 0xbe, 0x4f, 0x77, 0x24, 0xbd,
  0xda, 0x8c, 0xac, 0x3e, 0x2c, 0xda, 0x23, 0xbf, 0x26, 0xd8, 0xac, 0x3b,
  0x6a, 0xaa, 0x55, 0xbf, 0xc2, 0x4c, 0x85, 0xbd, 0xd8, 0x96, 0x50, 0xbf,
  0xf7, 0x50, 0x92, 0xbd, 0xf9, 0x92, 0x82, 0xbe, 0x0e, 0xf3, 0x81, 0x3e,
  0xae, 0xcd, 0x43, 0xbe, 0xeb, 0x78, 0x80, 0xbe, 0x4e, 0x35, 0xf3, 0x3c,
  0xb3, 0x24, 0x81, 0xbe, 0xee, 0xba, 0x0e, 0xbd, 0x18, 0x07, 0xef, 0x3d,
  0x11, 0x56, 0xc7, 0xbd, 0x3b, 0x55, 0x22, 0x3e, 0xce, 0x0f, 0xc0, 0xbe,
  0x45, 0x23, 0x70, 0xbe, 0x53, 0x50, 0x65, 0xbe, 0x56, 0x2a, 0xfb, 0xbd,
  0x95, 0xcf, 0xb6, 0xbe, 0xe8, 0x32, 0x3e, 0x3d, 0xae, 0xee, 0x90, 0xbe,
  0x2f, 0xbc, 0x7c, 0x3e, 0x60, 0xdf, 0x9f, 0xbe, 0xc2, 0x15, 0x30, 0x3e,
  0x46, 0x7a, 0x19, 0xbd, 0x6e, 0x37, 0x34, 0xbd, 0x53, 0x01, 0xcc, 0x3d,
  0xe7, 0xbf, 0x80, 0x3d, 0x75, 0x50, 0xf7, 0xbd, 0xc2, 0x7f, 0xdb, 0x3e,
  0x9c, 0x1a, 0x9a, 0xbd, 0x18, 0x0e, 0x5a, 0xbe, 0x14, 0x23, 0x4f, 0x3e,
  0xf2, 0xe4, 0x06, 0xbd, 0xda, 0x68, 0xbf, 0xbe, 0xb0, 0x31, 0x16, 0xbe,
  0xb6, 0x77, 0x0d, 0xbe, 0x95, 0x00, 0xd1, 0x3e, 0xf5, 0xe3, 0xf2, 0xbc,
  0x7e, 0xcc, 0x32, 0xbe, 0xb9, 0x14, 0x82, 0xb8, 0x1e, 0x9c, 0xb1, 0xbc,
  0x9c, 0x5c, 0x06, 0x3d, 0x1d, 0x80, 0x6d, 0x3d, 0x16, 0xc0, 0xcb, 0xbd,
  0x29, 0x33, 0xde, 0x3d, 0x8b, 0xc7, 0xb0, 0xbd, 0x5e, 0xd5, 0x7f, 0x3c,
  0x90, 0xe6, 0x73, 0x3d, 0x92, 0xb4, 0x31, 0xbd, 0x2d, 0x46, 0x1d, 0xbd,
  0xd2, 0x25, 0xc9, 0xbd, 0x6d, 0x54, 0x57, 0xbe, 0x5e, 0xc2, 0x74, 0xbc,
  0x00, 0xcf, 0x97, 0x3d, 0x19, 0x8b, 0x09, 0x3c, 0x25, 0x56, 0x1f, 0xbc,
  0x34, 0xf3, 0xe6, 0xbd, 0xae, 0xf5, 0x00, 0x3e, 0x3e, 0xff, 0xb6, 0xbe,
  0x50, 0xdd, 0xe0, 0xbd, 0x3a, 0x77, 0xa7, 0xbe, 0x8b, 0xc6, 0xc3, 0x3d,
  0x91, 0x80, 0x03, 0x3c, 0xd3, 0x44, 0x33, 0xbd, 0x27, 0x79, 0x60, 0xbe,
  0x25, 0xd2, 0x09, 0x3e, 0x81, 0x89, 0xc5, 0x3e, 0x57, 0xa7, 0x89, 0xbe,
  0xd5, 0x87, 0x31, 0xbf, 0xc7, 0xd4, 0x0c, 0xbf, 0x83, 0x8d, 0x45, 0x3d,
  0x7f, 0x08, 0x47, 0xbd, 0x95, 0x4f, 0xd1, 0x3e, 0x72, 0x06, 0x6a, 0xbd,
  0xd9, 0x64, 0x5b, 0x3d, 0x78, 0x7d, 0xb7, 0xbd, 0xc3, 0x3e, 0xe2, 0xbd,
  0x82, 0xc4, 0xa9, 0x3e, 0xff, 0x6e, 0x42, 0xbd, 0x0c, 0x6f, 0x51, 0x3e,
  0x20, 0xdc, 0x95, 0xbd, 0x0c, 0x5b, 0x20, 0x3e, 0x95, 0xf7, 0x6b, 0x3e,
  0x80, 0xc3, 0x43, 0xbd, 0x03, 0x67, 0x22, 0xbe, 0x2e, 0x81, 0xe1, 0xbd,
  0xca, 0x0d, 0x4a, 0xbe, 0x7f, 0xa2, 0x22, 0xbd, 0x9d, 0x8b, 0x8a, 0x3e,
  0xa7, 0x99, 0x60, 0x3c, 0x49, 0xbb, 0x5b, 0x3d, 0xae, 0x80, 0x87, 0xbc,
  0x15, 0xb7, 0xda, 0xbc, 0x2b, 0x9f, 0xe5, 0x3e, 0xa0, 0x86, 0x10, 0xbd,
  0xe6, 0x71, 0xe3, 0x3e, 0x8a, 0x31, 0x98, 0xbd, 0xd1, 0xc5, 0x01, 0x3e,
  0x2f, 0xc4, 0x4e, 0x3e, 0xc1, 0x2f, 0x46, 0x3d, 0x50, 0xa8, 0x60, 0xbd,
  0xcc, 0x6b, 0x13, 0xbe, 0xcb, 0xd9, 0x67, 0xbe, 0xb4, 0xec, 0xd2, 0xbd,
  0x29, 0x2f, 0xc8, 0x3e, 0x94, 0xf0, 0xff, 0x3c, 0xe8, 0xce, 0x3c, 0xbe,
  0x2d, 0x9a, 0x21, 0xbc, 0x89, 0xc8, 0x11, 0xbc, 0xa7, 0xc4, 0xb0, 0x3e,
  0x84, 0x67, 0x34, 0xbd, 0x46, 0x56, 0xab, 0x3e, 0xb0, 0x4e, 0xa1, 0x3d,
  0x69, 0x2a, 0x2c, 0x3e, 0x46, 0xf1, 0x8b, 0xbc, 0x40, 0x49, 0x68, 0xbd,
  0x0f, 0xab, 0x9f, 0xbe, 0xa7, 0x3a, 0x8f, 0xbe, 0x3d, 0x33, 0x82, 0x3d,
  0x38, 0x19, 0x8d, 0xbd, 0x38, 0x67, 0xd5, 0x3e, 0x11, 0x87, 0x8a, 0x3b,
  0xa5, 0x72, 0xf9, 0xbe, 0xa3, 0xc4, 0xad, 0xbd, 0x51, 0xbc, 0xa6, 0xbe,
  0xa3, 0x57, 0x2b, 0x3e, 0xba, 0x88, 0x31, 0x3d, 0x53, 0x51, 0xb3, 0x3d,
  0x50, 0xb6, 0xf4, 0xbd, 0x98, 0xab, 0xd6, 0x3e, 0xba, 0x15, 0x8b, 0x3e,
  0x5e, 0x08, 0x95, 0xbd, 0xcd, 0x98, 0xe7, 0xbe, 0x9a, 0xf7, 0xe6, 0xbe,
  0x90, 0x28, 0x2b, 0x3e, 0x3c, 0xd7, 0xf6, 0xbb, 0x72, 0xc3, 0x7e, 0x3e,
  0x14, 0xa4, 0x91, 0x3d, 0x5c, 0xde, 0x99, 0xbe, 0x81, 0x2f, 0x56, 0xbd,
  0x77, 0x92, 0xa5, 0xbc, 0x81, 0x12, 0x73, 0x3d, 0x01, 0x4f, 0x16, 0xbe,
  0xe9, 0xcf, 0xf2, 0x3d, 0x33, 0x4d, 0x02, 0xbe, 0x81, 0xa2, 0x9d, 0x3e,
  0x50, 0x6d, 0x8d, 0x3e, 0xf6, 0xaa, 0x8d, 0xbd, 0x9e, 0x70, 0xf2, 0xbe,
  0xa8, 0x61, 0xb1, 0xbe, 0x7f, 0x0d, 0x99, 0x3e, 0x3f, 0xaa, 0x4d, 0xbd,
  0x4f, 0xc7, 0x9d, 0x3e, 0x93, 0xb6, 0xf7, 0xbd, 0x14, 0x1b, 0x04, 0xbe,
  0x22, 0x9c, 0xd9, 0xbd, 0x80, 0x61, 0xa0, 0xbd, 0x9a, 0xb2, 0xc3, 0x3d,
  0xb0, 0xdc, 0x81, 0xbd, 0x42, 0x34, 0x0b, 0x3e, 0xa2, 0x08, 0x85, 0x3d,
  0xe3, 0xcf, 0x98, 0xbd, 0x70, 0xcb, 0x6a, 0x3e, 0xe7, 0x56, 0x5b, 0xbb,
  0xc1, 0xeb, 0x7e, 0xbe, 0x07, 0xa0, 0x18, 0xbe, 0x91, 0x8e, 0x45, 0x3d,
  0xfd, 0x6e, 0x40, 0xbd, 0xf5, 0x19, 0x8a, 0x3d, 0x01, 0x5d, 0xcb, 0xbd,
  0xf9, 0xcc, 0x33, 0x3e, 0x53, 0x0d, 0x8c, 0xbe, 0x04, 0x57, 0xa2, 0x3d,
  0x1c, 0x7d, 0x03, 0xbe, 0xa7, 0xec, 0x2b, 0x3e, 0x30, 0x99, 0x80, 0xbd,
  0xf7, 0x14, 0x45, 0xbd, 0xb1, 0xee, 0x95, 0xbe, 0xfa, 0x92, 0xf0, 0xbd,
  0x1e, 0x5f, 0x8f, 0xbe, 0x8a, 0xf1, 0xf3, 0xbd, 0xf0, 0x21, 0x04, 0x3d,
  0x89, 0xe6, 0x03, 0xbe, 0x64, 0xbd, 0x08, 0xbe, 0x82, 0xd7, 0x98, 0x3d,
  0x59, 0xcb, 0x6c, 0x3d, 0x64, 0x03, 0x62, 0x3d, 0x33, 0x44, 0xf9, 0xbd,
  0x8f, 0x03, 0x2e, 0x3e, 0x38, 0xb2, 0x75, 0xbe, 0x77, 0x94, 0xe6, 0xbd,
  0xc3, 0x4e, 0x44, 0x3e, 0x32, 0x27, 0x6a, 0xbe, 0x09, 0x1e, 0x1f, 0xbe,
  0xab, 0xa0, 0xbf, 0xbd, 0x17, 0xd9, 0xce, 0xbd, 0xab, 0x65, 0xd6, 0xba,
  0x63, 0x89, 0x78, 0xbd, 0x92, 0x97, 0x31, 0xbe, 0x05, 0x13, 0x7f, 0xbe,
  0x7a, 0x20, 0x19, 0xbe, 0x51, 0xdd, 0x1b, 0xbe, 0xa7, 0xdf, 0xca, 0xbc,
  0x9a, 0x13, 0xb1, 0x3d, 0x79, 0xf9, 0x58, 0xbe, 0xbc, 0x20, 0x36, 0xbe,
  0x50, 0xb0, 0xab, 0xbd, 0xe7, 0xdc, 0x44, 0x3e, 0x40, 0xe9, 0xe7, 0xbd,
  0x3b, 0x05, 0xa1, 0xbd, 0xa8, 0x76, 0x3b, 0xbe, 0x86, 0x81, 0xe5, 0xbc,
  0x45, 0x08, 0x15, 0xbc, 0x5a, 0x00, 0x98, 0x3d, 0x3b, 0x0f, 0xf9, 0xbc,
  0xe6, 0xa7, 0x52, 0xbe, 0xe3, 0x2c, 0xe9, 0x3d, 0x53, 0x5f, 0x95, 0x3d,
  0x0a, 0x30, 0x14, 0x3d, 0x6b, 0xca, 0xeb, 0x3d, 0x22, 0x8d, 0x5f, 0xbe,
  0xe7, 0x71, 0xdc, 0xbd, 0xbb, 0x9d, 0xde, 0xbd, 0x9d, 0x45, 0x84, 0x3d,
  0xcb, 0x15, 0x06, 0xbe, 0x57, 0xe8, 0x9a, 0xbe, 0xe2, 0x65, 0x8b, 0x3d,
  0xec, 0x31, 0xc1, 0xbe, 0xa4, 0x8a, 0x7f, 0xbd, 0x17, 0x41, 0x97, 0xbd,
  0xdd, 0x6a, 0x2f, 0x3e, 0x69, 0xa3, 0xc6, 0x3c, 0x74, 0xc1, 0x4d, 0x3e,
  0x75, 0xde, 0x79, 0xbc, 0x3b, 0xb8, 0x63, 0xbe, 0x10, 0x79, 0xbc, 0xbd,
  0xf5, 0xe5, 0x37, 0xbe, 0x81, 0xfa, 0x8e, 0xbe, 0x06, 0x01, 0x1e, 0xbe,
  0x66, 0xe9, 0x09, 0xbe, 0xc4, 0x79, 0x89, 0xbe, 0xd4, 0x69, 0xf8, 0xbd,
  0x0f, 0x34, 0x4d, 0xbd, 0x4f, 0x4d, 0x45, 0xbe, 0x30, 0xf0, 0x83, 0xbc,
  0x45, 0xdd, 0xc1, 0x3d, 0x8f, 0x0e, 0x41, 0x3c, 0xed, 0xf0, 0x2a, 0xbd,
  0xef, 0x07, 0x31, 0x3d, 0x69, 0x56, 0x6c, 0xbe, 0x90, 0x84, 0x01, 0xbe,
  0xf6, 0xbd, 0x34, 0xbe, 0x76, 0x9f, 0x11, 0x3e, 0xd2, 0x3f, 0xaa, 0x3d,
  0xb7, 0xfd, 0x23, 0x3e, 0x7c, 0xc1, 0x7f, 0xbd, 0xd7, 0xdd, 0x0f, 0xbe,
  0xf2, 0x41, 0x75, 0x3d, 0x32, 0x8f, 0x2b, 0x3e, 0x60, 0x4c, 0x22, 0xbe,
  0x50, 0xb9, 0x21, 0x3d, 0xe4, 0x7d, 0x14, 0x3d, 0x26, 0xe6, 0x94, 0xbd,
  0xc3, 0x59, 0x3e, 0xbe, 0x4e, 0xf6, 0x16, 0x3e, 0x82, 0xc7, 0x70, 0xbd,
  0x86, 0xa3, 0x25, 0xbe, 0x5c, 0xc7, 0x49, 0xbe, 0x0e, 0x8e, 0xbd, 0xbd,
  0x2a, 0x87, 0x8f, 0x3c, 0x0e, 0x8a, 0xe0, 0xba, 0x5f, 0x8b, 0x69, 0xbe,
  0x7e, 0x7d, 0x7d, 0xbe, 0x2d, 0x10, 0x2a, 0xbe, 0xce, 0xf9, 0x07, 0x3e,
  0x8c, 0x0b, 0xd9, 0x3b, 0x14, 0x16, 0x16, 0xbe, 0x9f, 0x52, 0xa3, 0x3c,
  0x0b, 0xe4, 0xa4, 0xbd, 0xc6, 0x23, 0x00, 0xbc, 0x45, 0x2b, 0x47, 0xbe,
  0xb4, 0x67, 0x37, 0xbf, 0x1b, 0x30, 0x4b, 0xbe, 0xc9, 0x3e, 0xcf, 0xbd,
  0x75, 0x89, 0xc1, 0xbd, 0x7b, 0x9f, 0x60, 0xbe, 0x45, 0xfe, 0x82, 0xbe,
  0x7f, 0xf3, 0x28, 0xbe, 0x5f, 0x97, 0xdc, 0xbd, 0xa8, 0x52, 0x46, 0xbd,
  0xcc, 0xb3, 0x27, 0xbe, 0xbb, 0xd4, 0xd8, 0x3c, 0x1f, 0xe7, 0xb3, 0xbd,
  0x4b, 0x3c, 0x82, 0xbe, 0x98, 0xba, 0x17, 0xbe, 0xc8, 0x4e, 0xe3, 0xbe,
  0x49, 0x65, 0x0f, 0xbd, 0x4f, 0xcd, 0x8b, 0xbe, 0x60, 0x54, 0x6d, 0xbe,
  0x4a, 0x1f, 0x2c, 0xbe, 0x1d, 0x0f, 0x71, 0xbe, 0xf6, 0x48, 0x29, 0x3e,
  0x9d, 0xb5, 0xf5, 0xbd, 0x46, 0xaa, 0x0e, 0xbe, 0x20, 0xe5, 0x98, 0xbe,
  0xa7, 0x4d, 0x80, 0xbd, 0x48, 0x66, 0x0b, 0xbe, 0xd4, 0x22, 0x79, 0xbc,
  0x3b, 0xa9, 0x74, 0xbe, 0x8c, 0x72, 0xbe, 0xbd, 0xd4, 0xbc, 0x5f, 0xbe,
  0xdb, 0x32, 0x5e, 0xbe, 0x9a, 0x35, 0xc6, 0x3d, 0xfa, 0xa9, 0xdd, 0xbe,
  0x0e, 0x0d, 0x29, 0xbe, 0x13, 0xc6, 0x89, 0xbd, 0x57, 0x66, 0x91, 0xbe,
  0x0f, 0xdf, 0xa7, 0xbe, 0xc3, 0x12, 0x99, 0xbc, 0x75, 0x45, 0x99, 0xbe,
  0x85, 0x37, 0xd1, 0xbd, 0x9f, 0x63, 0xae, 0x3d, 0xdc, 0x0d, 0x2f, 0xbe,
  0xd7, 0xd6, 0x2c, 0xbd, 0x26, 0xa7, 0xac, 0xbd, 0x26, 0x57, 0x22, 0xbe,
  0xbd, 0x2c, 0x00, 0x3d, 0xb8, 0xd6, 0xcd, 0xbe, 0x19, 0xc2, 0x79, 0x3e,
  0x85, 0xad, 0x58, 0x3e, 0x88, 0xdc, 0x8d, 0xbe, 0x59, 0x61, 0x2e, 0xbe,
  0x34, 0xce, 0xdb, 0xbd, 0x00, 0xa9, 0x1b, 0xbf, 0x62, 0xa2, 0xe6, 0xbc,
  0x9e, 0x92, 0x2c, 0xbf, 0x37, 0x4d, 0x8f, 0xbe, 0x3c, 0xdc, 0x9d, 0xbe,
  0x8c, 0x95, 0xda, 0x3d, 0xbb, 0xa2, 0x08, 0xbe, 0xb2, 0xd0, 0xb3, 0xbe,
  0xa4, 0xad, 0x68, 0xbe, 0xce, 0xfa, 0xe1, 0xbe, 0x61, 0x02, 0xac, 0xbe,
  0x6a, 0x94, 0x41, 0x3e, 0xa6, 0x08, 0xfb, 0x3e, 0xb4, 0x4f, 0x7f, 0x3d,
  0x00, 0xdb, 0x61, 0xbd, 0xae, 0xa2, 0xa4, 0x3e, 0x53, 0x6f, 0x0f, 0x3e,
  0x9b, 0x4d, 0x9d, 0x3c, 0x78, 0x80, 0x32, 0x3e, 0x7d, 0xc5, 0x30, 0xbd,
  0xb9, 0x5b, 0x50, 0xbe, 0xcf, 0x47, 0x11, 0x3d, 0x88, 0x99, 0x41, 0xbd,
  0x95, 0xdd, 0xb2, 0x3e, 0x2e, 0x18, 0x6d, 0x3d, 0xa4, 0xaa, 0x57, 0x3d,
  0x3d, 0x6e, 0x94, 0xbe, 0xfa, 0x3a, 0x01, 0x3e, 0xf6, 0x32, 0x32, 0x3e,
  0x75, 0xcf, 0xb1, 0xbc, 0xab, 0x32, 0xbb, 0xbc, 0xb3, 0xef, 0x70, 0x3e,
  0xad, 0x1d, 0x2f, 0x3d, 0xf8, 0xba, 0xa5, 0x3d, 0x42, 0x4f, 0x12, 0x3d,
  0x6d, 0x16, 0x94, 0x3d, 0xdd, 0xde, 0x8e, 0xbe, 0x64, 0xc6, 0x7f, 0xbd,
  0xde, 0x82, 0x87, 0x3d, 0xea, 0xfc, 0x4b, 0x3e, 0xd5, 0x2e, 0x1c, 0x3e,
  0xaf, 0xf5, 0x70, 0xbe, 0xdb, 0x76, 0x6f, 0xbd, 0x74, 0x77, 0x0e, 0xbd,
  0xe4, 0x0d, 0x56, 0x3e, 0x93, 0x39, 0xdd, 0xbc, 0x26, 0x09, 0x5a, 0x3d,
  0xa4, 0x43, 0xd7, 0x3e, 0x04, 0xfe, 0xa9, 0x3e, 0xa4, 0x1e, 0x04, 0xbc,
  0x4b, 0x85, 0xd3, 0xbc, 0xa6, 0xb0, 0xc7, 0xbc, 0xb4, 0x74, 0x09, 0xbd,
  0xe9, 0x67, 0x95, 0xbd, 0x8c, 0x87, 0x15, 0x3e, 0xa2, 0xb7, 0xee, 0x3e,
  0xa2, 0x2b, 0x28, 0xbd, 0x44, 0x4c, 0xe4, 0xbc, 0xac, 0x3f, 0x70, 0x3e,
  0xe6, 0x90, 0x7d, 0xbc, 0xab, 0x5c, 0x75, 0xbb, 0x0c, 0xab, 0xcc, 0x3c,
  0x6f, 0x81, 0x13, 0xbe, 0x49, 0x4b, 0xef, 0xbd, 0x0b, 0xef, 0xfc, 0x3d,
  0x41, 0xb8, 0x38, 0x3d, 0x9b, 0xb1, 0x1d, 0xbd, 0x81, 0xd3, 0xef, 0xbd,
  0xa9, 0x40, 0xb0, 0xbd, 0xfd, 0xd7, 0x6b, 0xbd, 0x09, 0xd3, 0x89, 0xbd,
  0x3e, 0x2f, 0x23, 0xbd, 0x27, 0xb7, 0x74, 0x3e, 0x3c, 0xbb, 0x8f, 0x3d,
  0x6e, 0x84, 0x45, 0xbe, 0xf2, 0x78, 0x22, 0xbe, 0x95, 0x46, 0xc8, 0x3d,
  0x87, 0x0d, 0x15, 0x3e, 0xb5, 0xb4, 0x1e, 0xbe, 0x83, 0x68, 0xfc, 0xbe,
  0x26, 0x21, 0x87, 0x3d, 0xe8, 0xd3, 0xbd, 0x3d, 0xe9, 0xa7, 0x16, 0x3e,
  0x5d, 0x00, 0x45, 0xbe, 0x11, 0x93, 0xa4, 0xbe, 0xb3, 0x3a, 0x41, 0xbe,
  0x9e, 0xb6, 0x70, 0xbe, 0x09, 0xfa, 0xce, 0x3e, 0xcb, 0x08, 0x86, 0x3e,
  0x92, 0x41, 0x8a, 0x3e, 0xc0, 0x4d, 0xd7, 0xbd, 0xfd, 0x12, 0x3b, 0xbe,
  0x7c, 0x98, 0x51, 0xbb, 0x92, 0xd0, 0x03, 0x3f, 0xa7, 0x74, 0x8e, 0xbc,
  0x7d, 0xdd, 0xf8, 0xbd, 0x17, 0xf9, 0x1d, 0x3e, 0x86, 0x5b, 0x61, 0xbe,
  0x45, 0xab, 0xf3, 0xbd, 0x99, 0x34, 0x93, 0xbd, 0x3c, 0xef, 0x86, 0x3e,
  0x5b, 0x92, 0x99, 0x3c, 0x80, 0x86, 0x45, 0xbd, 0x3c, 0xcb, 0x68, 0x3e,
  0xdc, 0x0b, 0x68, 0x3e, 0x99, 0x55, 0x25, 0x3e, 0x07, 0x26, 0xa3, 0xbc,
  0xfd, 0x23, 0x1b, 0xbd, 0x18, 0xa9, 0xef, 0xbd, 0x47, 0x74, 0x8e, 0x3e,
  0x27, 0x9c, 0x9b, 0xbd, 0x65, 0x2b, 0x92, 0x39, 0xd5, 0xf5, 0x6e, 0x3d,
  0x19, 0x4e, 0xc8, 0x3c, 0x0a, 0x07, 0x6c, 0x3e, 0xec, 0xed, 0xee, 0x3d,
  0xdc, 0xfe, 0xb9, 0x3d, 0x51, 0x9b, 0x57, 0x3e, 0x25, 0x50, 0x4d, 0xbe,
  0xb2, 0xfb, 0x2a, 0x3e, 0xae, 0x09, 0xa7, 0x3e, 0x34, 0x2f, 0x28, 0x3e,
  0xd8, 0xae, 0x05, 0xbe, 0x90, 0x21, 0xb2, 0x3e, 0x79, 0x1a, 0xbe, 0x3c,
  0x2c, 0x16, 0x86, 0x3e, 0x2e, 0x90, 0x29, 0xbe, 0xed, 0x09, 0x5d, 0xbe,
  0xf3, 0x44, 0xe4, 0xbd, 0x63, 0xd8, 0x4f, 0xbd, 0xea, 0x52, 0xc2, 0x3c,
  0x5f, 0xd2, 0x05, 0x3d, 0xb3, 0xee, 0xd1, 0x3c, 0x1e, 0x89, 0x81, 0xbe,
  0xdb, 0xbf, 0xa3, 0x3d, 0x26, 0x0a, 0x10, 0xbe, 0x38, 0xa2, 0xa6, 0x3e,
  0x8d, 0x5a, 0xd9, 0x3d, 0x8b, 0x5e, 0xaf, 0xbe, 0xb8, 0x43, 0x05, 0xbe,
  0x2e, 0x92, 0x3f, 0xbd, 0xb6, 0x62, 0x98, 0x3d, 0x7f, 0x56, 0xef, 0xbd,
  0xc6, 0xcf, 0x8e, 0xbe, 0x3f, 0x0d, 0xfe, 0xbd, 0x57, 0x63, 0x63, 0xbd,
  0x0a, 0x39, 0x0e, 0xbe, 0xdf, 0xd1, 0x17, 0x3e, 0x12, 0xeb, 0x49, 0x3e,
  0x02, 0xd4, 0x1a, 0x3e, 0xfc, 0x6f, 0x04, 0xbe, 0x9a, 0xed, 0xe7, 0x3d,
  0xe0, 0x32, 0xa0, 0x3e, 0x8c, 0xd0, 0x02, 0x3d, 0x37, 0xde, 0x97, 0xbe,
  0x27, 0x95, 0x7d, 0xbe, 0x14, 0x25, 0xe9, 0xbe, 0x18, 0xeb, 0xb8, 0x3e,
  0x5d, 0x79, 0x30, 0xbc, 0xb3, 0x7f, 0x0b, 0xbe, 0xf0, 0x39, 0xa6, 0xbe,
  0xdd, 0x7d, 0x21, 0xbe, 0x5d, 0x98, 0x64, 0xbe, 0xf9, 0x23, 0x03, 0x3d,
  0x58, 0x8a, 0x16, 0xbe, 0x04, 0x8c, 0x39, 0x3e, 0xfb, 0x0a, 0xb3, 0xbc,
  0xf0, 0x5a, 0x06, 0x3e, 0xa1, 0x2a, 0x4e, 0x3e, 0x87, 0x85, 0xcb, 0xbe,
  0xe5, 0xbc, 0x8b, 0xbe, 0xf3, 0x36, 0xdb, 0xbe, 0xe0, 0x88, 0x55, 0xbe,
  0x37, 0xbf, 0x5f, 0xbe, 0x0b, 0xd0, 0xc0, 0xbc, 0x03, 0x5b, 0x16, 0xbb,
  0x00, 0xec, 0x50, 0xbd, 0x00, 0xda, 0x33, 0xbe, 0x7b, 0xc6, 0x84, 0x3d,
  0xdb, 0xf0, 0xa9, 0xbd, 0x93, 0x31, 0x10, 0xbd, 0x69, 0x7c, 0x2a, 0x3e,
  0xd1, 0x54, 0x13, 0xbe, 0x96, 0xda, 0x51, 0xbe, 0x02, 0xee, 0x35, 0xbe,
  0x13, 0x11, 0xe7, 0x3d, 0x39, 0x88, 0x3d, 0xbd, 0xb3, 0xac, 0x05, 0xbe,
  0x40, 0x61, 0xca, 0x3d, 0x38, 0xdb, 0x11, 0xbe, 0x58, 0xd3, 0x37, 0xbe,
  0x67, 0x90, 0x78, 0xbd, 0xf8, 0x7b, 0x07, 0xbe, 0x6a, 0xb9, 0x3f, 0x3c,
  0x4a, 0xd0, 0xba, 0x3d, 0x85, 0x13, 0xcd, 0xbc, 0x2f, 0xf2, 0x81, 0xbd,
  0x74, 0xe8, 0xf9, 0x3d, 0x4b, 0x11, 0x8a, 0xbc, 0x12, 0x8f, 0xb5, 0x3c,
  0x0b, 0xaf, 0xc2, 0x3c, 0xe8, 0x48, 0x5c, 0xbc, 0xbb, 0x3f, 0xe3, 0xbd,
  0x41, 0x45, 0xaf, 0x3d, 0x28, 0x72, 0xba, 0xbd, 0x1c, 0x0f, 0x60, 0xbe,
  0xb1, 0xc9, 0x8a, 0xbe, 0xe9, 0x3e, 0xca, 0xbd, 0x28, 0x78, 0x44, 0x3d,
  0x79, 0xa0, 0x74, 0xbe, 0x8e, 0xd6, 0x75, 0x3d, 0xfc, 0x6f, 0xe3, 0xbd,
  0xd5, 0x6d, 0x01, 0xbe, 0x42, 0x6b, 0x65, 0xbe, 0xd4, 0x11, 0x65, 0xbd,
  0x24, 0xec, 0x00, 0xbe, 0x76, 0xe2, 0x61, 0x3d, 0x6a, 0x2c, 0x79, 0xbc,
  0xd0, 0x17, 0x40, 0x3d, 0xd5, 0xa3, 0x36, 0xbe, 0x79, 0xd0, 0x28, 0xbe,
  0x63, 0x7c, 0x83, 0x3c, 0x2d, 0xee, 0x4e, 0x3d, 0x18, 0x9a, 0x0c, 0xbe,
  0x76, 0xfa, 0xa0, 0xbc, 0x85, 0xd6, 0x1a, 0xbe, 0xf0, 0xcd, 0x05, 0x3e,
  0xa0, 0xff, 0x27, 0xbe, 0xcc, 0x04, 0xc2, 0xbc, 0x1a, 0xb0, 0xb4, 0x3b,
  0xcc, 0xf5, 0x5a, 0xbe, 0x3a, 0x7a, 0xbd, 0xbd, 0xe6, 0x9e, 0x38, 0xbe,
  0xab, 0x0a, 0x2a, 0xbe, 0x9a, 0xa4, 0x1f, 0xbe, 0xc2, 0xef, 0x15, 0xbe,
  0x27, 0x82, 0x5d, 0xbe, 0xba, 0x33, 0x85, 0x3d, 0x6b, 0x8f, 0x7f, 0x3d,
  0xcf, 0x18, 0x32, 0xbe, 0x36, 0xfe, 0xdb, 0x3d, 0xd2, 0xa3, 0x2c, 0xbe,
  0x20, 0x21, 0x28, 0x3e, 0x0c, 0x0a, 0xf3, 0xbd, 0x46, 0x5b, 0x1d, 0xbe,
  0xd4, 0xaa, 0x9a, 0x3c, 0x49, 0x46, 0x86, 0xbe, 0x1c, 0x67, 0x43, 0xbe,
  0xe3, 0xb0, 0xed, 0x3d, 0xf1, 0x21, 0x29, 0x3d, 0x41, 0x19, 0x5a, 0xbe,
  0x2d, 0x78, 0xfd, 0x3d, 0xd6, 0x38, 0x99, 0xbe, 0xd9, 0xd9, 0x9b, 0xbc,
  0xa6, 0xa6, 0x33, 0xbe, 0x68, 0xdc, 0xd5, 0x3c, 0xce, 0xb0, 0xf0, 0xbd,
  0x3f, 0x42, 0x2e, 0x3d, 0xdb, 0x5c, 0xb7, 0x3c, 0x69, 0xe2, 0x52, 0xbe,
  0x66, 0x3f, 0x9a, 0xbe, 0xd0, 0x57, 0xf4, 0x3d, 0x39, 0x6d, 0x05, 0xbe,
  0xf2, 0xe2, 0x78, 0xbd, 0xef, 0x69, 0xa5, 0x3d, 0x81, 0xe9, 0x59, 0xbe,
  0x18, 0xeb, 0xda, 0xbd, 0xe3, 0x12, 0x88, 0x3b, 0xd4, 0x70, 0x4b, 0xbe,
  0x20, 0x0e, 0xa4, 0x3d, 0xbf, 0x35, 0x1b, 0xbe, 0x77, 0xdd, 0x25, 0xbe,
  0x5d, 0x38, 0x82, 0x3d, 0xeb, 0x62, 0x49, 0x3c, 0xea, 0x81, 0x81, 0xbd,
  0x9d, 0xf1, 0x04, 0xbe, 0x5e, 0x37, 0x04, 0xbd, 0xbe, 0x44, 0x1d, 0xbd,
  0x50, 0x38, 0x92, 0xbd, 0x0e, 0x76, 0x9c, 0x3d, 0x85, 0x62, 0x11, 0xbe,
  0x60, 0x5d, 0x1d, 0xbd, 0x28, 0xd4, 0xab, 0xbd, 0x27, 0x7f, 0xc0, 0xb9,
  0x81, 0x9e, 0x5d, 0x3e, 0xb0, 0x53, 0x3b, 0x3e, 0xac, 0xd8, 0xd4, 0xbd,
  0xc7, 0x6a, 0xbc, 0x3e, 0x81, 0x43, 0xad, 0x3d, 0xc2, 0xc4, 0xb0, 0xbd,
  0xe5, 0xd3, 0x9c, 0x3d, 0x6a, 0xa3, 0x4b, 0x3e, 0xf5, 0xd0, 0xe4, 0xbd,
  0xae, 0x4d, 0x9f, 0xbd, 0x07, 0xe5, 0x8c, 0x3e, 0x80, 0x68, 0xbc, 0x3e,
  0x07, 0x7f, 0x20, 0x3e, 0xcb, 0x29, 0x2b, 0xbd, 0x0b, 0x8c, 0x52, 0xbe,
  0x2a, 0x02, 0x0a, 0xbc, 0xfb, 0x49, 0x82, 0x3d, 0xc6, 0x35, 0x85, 0xbd,
  0x55, 0x84, 0x03, 0xbe, 0xa5, 0x78, 0x1e, 0xbe, 0x19, 0xd8, 0x28, 0x3e,
  0x49, 0xbe, 0x90, 0x3d, 0x02, 0x45, 0x58, 0xbe, 0x27, 0x74, 0x94, 0xbe,
  0x72, 0x5d, 0xb3, 0xbd, 0x2b, 0xbc, 0x30, 0x3e, 0xdb, 0x3c, 0x95, 0x3d,
  0x59, 0xcc, 0xdd, 0xbd, 0xaa, 0x4f, 0x30, 0xbe, 0x5a, 0x45, 0x87, 0xbc,
  0x67, 0x7d, 0x32, 0xbe, 0x5d, 0xeb, 0xfb, 0xbd, 0x87, 0x12, 0x58, 0xbd,
  0x3d, 0x13, 0x4f, 0xbe, 0x54, 0xd5, 0x4a, 0xbd, 0xd8, 0xe0, 0x3d, 0x3e,
  0xae, 0x01, 0xc4, 0xbe, 0x84, 0xb0, 0x13, 0xbe, 0x16, 0xde, 0x7b, 0xbe,
  0x48, 0xac, 0xad, 0xbe, 0x12, 0xf5, 0x53, 0xbd, 0x4f, 0x8b, 0x37, 0x3d,
  0xcb, 0xc8, 0x67, 0xbe, 0x0a, 0xe0, 0x86, 0xbe, 0xdd, 0x7e, 0x47, 0xbe,
  0x64, 0xee, 0x16, 0xbd, 0x57, 0x19, 0xf0, 0xbc, 0xf3, 0x8a, 0x97, 0x3d,
  0xfe, 0x57, 0xc0, 0xbd, 0x6e, 0x39, 0x68, 0xbe, 0xc9, 0x36, 0x3a, 0xbe,
  0x57, 0xdf, 0xc1, 0xbd, 0x3c, 0xe4, 0x82, 0xbe, 0x03, 0xae, 0x80, 0x3d,
  0x2b, 0x34, 0xcf, 0xbe, 0x86, 0xce, 0xdb, 0xbe, 0x99, 0xac, 0xf0, 0xbe,
  0x13, 0x0e, 0x4c, 0x3d, 0x3e, 0x28, 0xc3, 0xbe, 0x8d, 0x9a, 0xd9, 0xbe,
  0x99, 0x00, 0xdf, 0xbd, 0x48, 0xea, 0xa4, 0xbe, 0x4a, 0x7d, 0x95, 0x3d,
  0x95, 0xb8, 0x0c, 0x3d, 0x4d, 0x86, 0xd3, 0x3d, 0x29, 0x6c, 0x0b, 0x3d,
  0x84, 0xce, 0x12, 0xbd, 0xc5, 0x66, 0x9b, 0x3e, 0xc6, 0x43, 0xd4, 0x3d,
  0xd1, 0x1d, 0xb5, 0xbd, 0x10, 0xef, 0x84, 0xbe, 0xcf, 0xfd, 0xbe, 0xbe,
  0x92, 0x2e, 0xa7, 0xbe, 0x97, 0xe4, 0x35, 0x3e, 0x21, 0xc7, 0xa1, 0xbe,
  0x89, 0x0e, 0x65, 0x3e, 0xae, 0x9f, 0x90, 0x3d, 0xf2, 0x55, 0x1f, 0x3d,
  0xe8, 0x13, 0x2d, 0xbd, 0x2c, 0x85, 0xf7, 0xbd, 0x58, 0x28, 0x04, 0x3e,
  0x79, 0xee, 0x6c, 0xbd, 0x3b, 0x0b, 0x2b, 0xbe, 0xbd, 0x4d, 0x7a, 0x3e,
  0xb1, 0x88, 0x7d, 0xbd, 0x48, 0x36, 0x1b, 0xbe, 0xf9, 0x88, 0xfd, 0x3b,
  0xbd, 0x03, 0x22, 0x3e, 0x84, 0x58, 0xbf, 0xbe, 0x53, 0x00, 0xa0, 0x3d,
  0xbb, 0xbd, 0x57, 0x3d, 0xba, 0x3c, 0x2e, 0x3e, 0xb0, 0x16, 0xdf, 0x3e,
  0x27, 0x89, 0xbf, 0xbc, 0x70, 0x7f, 0x8d, 0x3d, 0xf7, 0x5c, 0x09, 0x3e,
  0xcd, 0x4d, 0xdc, 0x3d, 0xf4, 0xa0, 0x83, 0xbe, 0xcd, 0x1d, 0x52, 0xbd,
  0x3c, 0x0d, 0x11, 0x3e, 0xb7, 0xd0, 0x1b, 0x3d, 0x75, 0x3b, 0x54, 0xbd,
  0x10, 0x98, 0x1c, 0x3d, 0xef, 0x19, 0x0a, 0xbd, 0xa2, 0x19, 0x0b, 0xbe,
  0x25, 0x4d, 0x1d, 0x3e, 0xd8, 0x4e, 0xd5, 0xbe, 0xf8, 0xea, 0x04, 0xbe,
  0x48, 0x67, 0xdb, 0xbd, 0x0c, 0xb1, 0x7b, 0x3d, 0xec, 0x6a, 0xbf, 0x3d,
  0xaa, 0x33, 0x85, 0xbd, 0x31, 0xba, 0xc4, 0xbe, 0x90, 0x1a, 0x05, 0x3d,
  0x45, 0xb5, 0xa6, 0x3b, 0xc6, 0x1f, 0xb8, 0xbe, 0x4b, 0xf2, 0x74, 0xbd,
  0x39, 0x58, 0x3b, 0x3e, 0x4a, 0xf0, 0x73, 0xbe, 0x18, 0x46, 0xb1, 0x3c,
  0x04, 0xdf, 0x2e, 0xbf, 0x54, 0x1a, 0xa5, 0xbe, 0x86, 0x62, 0x40, 0xbe,
  0xf3, 0x01, 0x49, 0xbd, 0x38, 0x8c, 0x8e, 0xbe, 0xaa, 0x9f, 0xde, 0xbe,
  0x7f, 0x92, 0x55, 0x3d, 0x39, 0x4b, 0xcd, 0xbd, 0xae, 0x95, 0x9c, 0xbe,
  0xb7, 0x99, 0x19, 0x3d, 0x20, 0x27, 0xef, 0x3d, 0x72, 0xc9, 0x06, 0x3e,
  0x20, 0x7c, 0x1a, 0xbe, 0x60, 0xee, 0x1d, 0x3e, 0x13, 0xf9, 0x58, 0xbe,
  0x95, 0x57, 0xd3, 0xbd, 0x03, 0xaf, 0x15, 0xbf, 0x35, 0x86, 0x80, 0xbe,
  0xb4, 0x7e, 0x0f, 0x3e, 0xc2, 0xca, 0x5e, 0x3e, 0x42, 0x56, 0xb0, 0x3e,
  0xdb, 0x45, 0x92, 0x3e, 0xb1, 0x6f, 0x4a, 0x3d, 0x43, 0xd5, 0xe6, 0xbe,
  0x1e, 0x5c, 0x65, 0x3c, 0xdd, 0x68, 0xcc, 0x3e, 0x78, 0x1f, 0x5a, 0x3d,
  0x18, 0x8c, 0xb4, 0x3c, 0xbf, 0xca, 0x1c, 0xbe, 0xdc, 0xe2, 0x8c, 0x3d,
  0x1a, 0xc6, 0xc9, 0xbd, 0x2a, 0x64, 0x21, 0x3d, 0x29, 0xd0, 0x0b, 0xbe,
  0x80, 0xa2, 0xe0, 0x3d, 0x85, 0xde, 0xb3, 0x3d, 0xd5, 0xa4, 0x11, 0x3e,
  0x3b, 0x3d, 0x59, 0x3e, 0xf0, 0xe4, 0x8a, 0x3c, 0x8a, 0x9b, 0xa7, 0x3d,
  0xe8, 0x02, 0x2b, 0xbd, 0x7e, 0x73, 0xa0, 0x3d, 0x31, 0x49, 0x94, 0x3e,
  0x38, 0xc1, 0x69, 0x3d, 0xea, 0x07, 0x99, 0x3e, 0xa8, 0x5c, 0x24, 0xbe,
  0xe6, 0x98, 0x05, 0x3d, 0x62, 0xe2, 0x83, 0xbb, 0x19, 0x8b, 0x03, 0x3e,
  0x41, 0x9b, 0xce, 0xbe, 0x66, 0x51, 0x01, 0xbd, 0xf8, 0x93, 0xe2, 0x3d,
  0x1f, 0x29, 0x66, 0x3e, 0x11, 0x11, 0xc0, 0x3e, 0x07, 0x27, 0xf6, 0xbd,
  0xec, 0x34, 0x22, 0x3d, 0x25, 0xab, 0xf6, 0x3d, 0x78, 0x34, 0x0c, 0xbc,
  0xac, 0x34, 0xe0, 0x3d, 0xab, 0x79, 0xe5, 0x3d, 0x27, 0x15, 0x86, 0xba,
  0xfe, 0x5c, 0x22, 0xbe, 0xf1, 0x79, 0x78, 0x3e, 0x39, 0xb9, 0x88, 0xbe,
  0x84, 0xfa, 0x0a, 0x3e, 0x05, 0x70, 0x81, 0xbe, 0x77, 0x7c, 0x76, 0xbe,
  0x26, 0xb7, 0x75, 0x3d, 0x7b, 0x90, 0xc5, 0xbd, 0x7a, 0xba, 0x6c, 0xbd,
  0x8d, 0x2c, 0x0b, 0xbe, 0xd0, 0x5c, 0x64, 0x3d, 0x3e, 0x3f, 0x96, 0xbe,
  0x2e, 0xd0, 0x92, 0xbe, 0x01, 0x21, 0x28, 0x3d, 0x30, 0x9b, 0x35, 0x3c,
  0x38, 0xa1, 0x1b, 0xbd, 0x49, 0x90, 0x2b, 0xbf, 0xb8, 0xf4, 0x8c, 0x3d,
  0x8e, 0x20, 0xd2, 0xbe, 0x02, 0x10, 0x11, 0x3e, 0x98, 0xb8, 0x7e, 0xbe,
  0xb7, 0xc3, 0xde, 0xbd, 0x9f, 0x36, 0x1d, 0x3e, 0x86, 0x8e, 0x8d, 0x3d,
  0xd1, 0x4e, 0xda, 0x3d, 0xad, 0xec, 0xba, 0xbe, 0x07, 0xdc, 0x74, 0x3d,
  0xfa, 0xdd, 0xcd, 0xbd, 0xc2, 0xbb, 0x78, 0x3c, 0x57, 0x2e, 0xe3, 0xbd,
  0x6a, 0xf1, 0x86, 0x3c, 0xfc, 0xe0, 0x74, 0xbe, 0x61, 0xfa, 0x8c, 0xbe,
  0x3f, 0x61, 0x5a, 0x3e, 0xc4, 0xa1, 0x13, 0xbe, 0x71, 0xd5, 0xd6, 0xbc,
  0x21, 0xf5, 0x5d, 0xbd, 0x35, 0x1c, 0x5d, 0xbe, 0xbb, 0x3e, 0x19, 0xbe,
  0x27, 0xaa, 0x4f, 0xbd, 0xc8, 0x6e, 0x2a, 0x3d, 0x91, 0x65, 0x86, 0xbd,
  0x01, 0xfb, 0x59, 0x3d, 0x08, 0xde, 0x89, 0xbe, 0xdc, 0x29, 0xcb, 0xbd,
  0x28, 0xa2, 0x3c, 0xbe, 0x63, 0xd2, 0x45, 0xbe, 0x1f, 0x40, 0x0c, 0x3d,
  0xf7, 0x35, 0x5b, 0x3d, 0x21, 0x76, 0x0d, 0xbe, 0x8b, 0xff, 0x2e, 0x3d,
  0xe2, 0x56, 0x04, 0xbe, 0xf3, 0xe3, 0x84, 0xbe, 0x23, 0x29, 0x62, 0xbe,
  0x2a, 0xfc, 0xae, 0xbe, 0x83, 0xde, 0xa0, 0xbd, 0x1a, 0x1f, 0xcf, 0x3d,
  0xde, 0x1b, 0xbf, 0x3d, 0xf9, 0xa5, 0xec, 0xbd, 0x14, 0xc0, 0xea, 0x3d,
  0xcc, 0x21, 0x75, 0xbd, 0x7e, 0x0f, 0x15, 0x3e, 0xe0, 0x35, 0x44, 0xbe,
  0xc1, 0x3c, 0x16, 0xbe, 0xae, 0x19, 0x38, 0xbe, 0x7a, 0x50, 0x2e, 0xbe,
  0x73, 0xfc, 0xd4, 0x3c, 0x93, 0x91, 0x18, 0xbe, 0x07, 0xcf, 0xbe, 0xbd,
  0x4a, 0x1d, 0x4d, 0xbe, 0xf6, 0x0a, 0x75, 0xbe, 0x1f, 0xee, 0xab, 0x3d,
  0x81, 0x4a, 0x9e, 0xbd, 0x5a, 0x70, 0x1d, 0x3d, 0xb7, 0x6e, 0xc0, 0xbd,
  0x1c, 0x4f, 0xf6, 0x3d, 0x8c, 0x6f, 0xeb, 0x3d, 0xed, 0xdd, 0xda, 0xbc,
  0xb5, 0x33, 0x4e, 0xbe, 0x01, 0xa3, 0x40, 0x3e, 0xc7, 0x08, 0x85, 0xbe,
  0x0a, 0x00, 0x24, 0x3e, 0x50, 0x32, 0x39, 0xbe, 0x8b, 0x5b, 0x7a, 0xbe,
  0xb6, 0x4d, 0x66, 0x3d, 0x01, 0xe9, 0x4c, 0xbe, 0x36, 0x6b, 0x17, 0xbd,
  0x87, 0xb9, 0x45, 0xbd, 0xeb, 0x6f, 0xe8, 0xbd, 0xae, 0x7e, 0xb6, 0xbc,
  0x29, 0x58, 0x74, 0xbe, 0x14, 0x94, 0xed, 0x3d, 0x67, 0x0c, 0x18, 0xbb,
  0x4e, 0x71, 0xf0, 0xbc, 0x2c, 0x86, 0xaf, 0x3d, 0xc7, 0x29, 0x56, 0xbe,
  0x3f, 0x1b, 0xf7, 0x3d, 0x50, 0x79, 0x74, 0x3d, 0x87, 0x7f, 0x30, 0xbd,
  0x50, 0x69, 0x49, 0x3d, 0xaa, 0xfc, 0x4b, 0xbe, 0x06, 0x7c, 0x96, 0xbb,
  0x0c, 0x9d, 0x85, 0xbe, 0x4e, 0x2b, 0x84, 0xbe, 0xbf, 0xad, 0x0b, 0xbd,
  0x58, 0xbc, 0xe8, 0xbd, 0xf5, 0x9c, 0x56, 0xbe, 0x6e, 0x4a, 0xb6, 0xbd,
  0x1e, 0x83, 0x49, 0xbe, 0xe7, 0x63, 0x03, 0x3d, 0x8c, 0x3d, 0xdb, 0x3b,
  0x9a, 0x9c, 0xb6, 0x3d, 0x44, 0xca, 0x8c, 0xbd, 0x9c, 0x88, 0x6c, 0x3b,
  0x17, 0x0d, 0x81, 0xbd, 0xfc, 0x4a, 0xa0, 0xbd, 0xe6, 0xde, 0x73, 0xbe,
  0x93, 0x95, 0x88, 0xbd, 0x39, 0x9c, 0x19, 0xbe, 0x38, 0x37, 0x58, 0xbc,
  0x1d, 0x73, 0x63, 0x3d, 0xbd, 0x15, 0x44, 0x3d, 0x53, 0xf2, 0x7d, 0xbe,
  0x58, 0x1a, 0x96, 0xbd, 0x0f, 0x83, 0x65, 0xbe, 0xd8, 0x69, 0xcc, 0x3d,
  0xc5, 0x70, 0xf5, 0xbd, 0x90, 0x20, 0x0f, 0xbe, 0xcf, 0x2a, 0xb3, 0xbd,
  0xae, 0xe0, 0xc1, 0x3d, 0x8a, 0x72, 0x91, 0xbc, 0x10, 0xa7, 0xca, 0xbb,
  0x23, 0xbb, 0x0f, 0xbe, 0x48, 0x28, 0x99, 0x3d, 0xdd, 0x93, 0x8b, 0xbe,
  0x30, 0x1f, 0xb0, 0x3c, 0x61, 0xe6, 0xdf, 0x3d, 0xa1, 0xc5, 0xa8, 0x3d,
  0x33, 0x1b, 0x39, 0x3d, 0x4c, 0x94, 0xda, 0x3d, 0xed, 0xfb, 0xb5, 0x3d,
  0x07, 0x58, 0x5b, 0x3d, 0x91, 0x3f, 0x3b, 0xbe, 0x76, 0x65, 0xd4, 0xbd,
  0x44, 0x29, 0xb6, 0x3d, 0x84, 0x1c, 0x2e, 0xbe, 0xd1, 0xc9, 0xa4, 0xbd,
  0x77, 0x2d, 0x21, 0xbe, 0xae, 0x32, 0x9f, 0xbe, 0x2c, 0x8f, 0x0b, 0x3e,
  0x65, 0x35, 0x83, 0xbe, 0x67, 0xd2, 0x18, 0xbc, 0x38, 0x6c, 0x27, 0x3c,
  0x9f, 0x07, 0x85, 0x3d, 0xc5, 0xcd, 0x53, 0xbd, 0xbd, 0xfb, 0x6b, 0xbe,
  0x56, 0xfd, 0xff, 0xff, 0x10, 0x00, 0x00, 0x00, 0x05, 0x00, 0x00, 0x00,
  0x10, 0x00, 0x00, 0x00, 0x30, 0x00, 0x00, 0x00, 0x01, 0x00, 0x00, 0x00,
  0x08, 0x00, 0x00, 0x00, 0x1d, 0x00, 0x00, 0x00, 0x73, 0x65, 0x71, 0x75,
  0x65, 0x6e, 0x74, 0x69, 0x61, 0x6c, 0x2f, 0x63, 0x6f, 0x6e, 0x76, 0x32,
  0x64, 0x2f, 0x43, 0x6f, 0x6e, 0x76, 0x32, 0x44, 0x5f, 0x62, 0x69, 0x61,
  0x73, 0x00, 0x00, 0x00, 0x68, 0xfc, 0xff, 0xff, 0x20, 0x00, 0x00, 0x00,
  0x9f, 0x5c, 0x21, 0xc0, 0x5f, 0x1b, 0xd1, 0xbf, 0x94, 0xf3, 0xcd, 0xbf,
  0xcf, 0x04, 0x94, 0xbe, 0x95, 0xc1, 0x42, 0xbf, 0x24, 0xe9, 0x00, 0xbe,
  0x4e, 0x97, 0xb5, 0xbf, 0x01, 0x61, 0xb7, 0xbd, 0xbe, 0xfd, 0xff, 0xff,
  0x10, 0x00, 0x00, 0x00, 0x04, 0x00, 0x00, 0x00, 0x10, 0x00, 0x00, 0x00,
  0x30, 0x00, 0x00, 0x00, 0x01, 0x00, 0x00, 0x00, 0x10, 0x00, 0x00, 0x00,
  0x1f, 0x00, 0x00, 0x00, 0x73, 0x65, 0x71, 0x75, 0x65, 0x6e, 0x74, 0x69,
  0x61, 0x6c, 0x2f, 0x63, 0x6f, 0x6e, 0x76, 0x32, 0x64, 0x5f, 0x31, 0x2f,
  0x43, 0x6f, 0x6e, 0x76, 0x32, 0x44, 0x5f, 0x62, 0x69, 0x61, 0x73, 0x00,
  0xd0, 0xfc, 0xff, 0xff, 0x40, 0x00, 0x00, 0x00, 0xc3, 0xaf, 0x16, 0xc0,
  0x09, 0x37, 0x8b, 0xbe, 0xa2, 0x92, 0x58, 0x3a, 0xb2, 0xdf, 0x29, 0xbf,
  0xf1, 0x92, 0xcd, 0xbf, 0x5d, 0x99, 0xd1, 0xbb, 0x3e, 0xf4, 0x0e, 0xc0,
  0x70, 0x57, 0xb9, 0xba, 0x84, 0x95, 0xf8, 0xbf, 0x53, 0x70, 0x7a, 0xbf,
  0xa5, 0x5f, 0x89, 0xbe, 0x5f, 0x98, 0x6e, 0xbf, 0x90, 0x73, 0x3e, 0xbf,
  0x55, 0x92, 0xbf, 0xbf, 0x33, 0x27, 0xa1, 0x3b, 0xe9, 0xd9, 0x96, 0xbf,
  0x46, 0xfe, 0xff, 0xff, 0x10, 0x00, 0x00, 0x00, 0x03, 0x00, 0x00, 0x00,
  0x10, 0x00, 0x00, 0x00, 0x30, 0x00, 0x00, 0x00, 0x01, 0x00, 0x00, 0x00,
  0x04, 0x00, 0x00, 0x00, 0x1e, 0x00, 0x00, 0x00, 0x73, 0x65, 0x71, 0x75,
  0x65, 0x6e, 0x74, 0x69, 0x61, 0x6c, 0x2f, 0x64, 0x65, 0x6e, 0x73, 0x65,
  0x5f, 0x31, 0x2f, 0x4d, 0x61, 0x74, 0x4d, 0x75, 0x6c, 0x5f, 0x62, 0x69,
  0x61, 0x73, 0x00, 0x00, 0x58, 0xfd, 0xff, 0xff, 0x10, 0x00, 0x00, 0x00,
  0xe6, 0x6c, 0xe0, 0xbd, 0x2e, 0xaa, 0x44, 0xbf, 0x77, 0x60, 0x15, 0x3f,
  0x39, 0x9d, 0x56, 0xc1, 0x9e, 0xfe, 0xff, 0xff, 0x10, 0x00, 0x00, 0x00,
  0x02, 0x00, 0x00, 0x00, 0x14, 0x00, 0x00, 0x00, 0x48, 0x00, 0x00, 0x00,
  0x02, 0x00, 0x00, 0x00, 0x04, 0x00, 0x00, 0x00, 0x10, 0x00, 0x00, 0x00,
  0x32, 0x00, 0x00, 0x00, 0x73, 0x65, 0x71, 0x75, 0x65, 0x6e, 0x74, 0x69,
  0x61, 0x6c, 0x2f, 0x64, 0x65, 0x6e, 0x73, 0x65, 0x5f, 0x31, 0x2f, 0x4d,
  0x61, 0x74, 0x4d, 0x75, 0x6c, 0x2f, 0x52, 0x65, 0x61, 0x64, 0x56, 0x61,
  0x72, 0x69, 0x61, 0x62, 0x6c, 0x65, 0x4f, 0x70, 0x2f, 0x74, 0x72, 0x61,
  0x6e, 0x73, 0x70, 0x6f, 0x73, 0x65, 0x00, 0x00, 0xc8, 0xfd, 0xff, 0xff,
  0x00, 0x01, 0x00, 0x00, 0x0f, 0x2f, 0xcc, 0x3e, 0x59, 0xc9, 0xb8, 0x3e,
  0xa1, 0x0e, 0xf1, 0x3e, 0x81, 0xf9, 0xb4, 0x3e, 0xfe, 0xb7, 0x8f, 0x3e,
  0x39, 0xf5, 0x5f, 0x3e, 0xf5, 0x88, 0x09, 0xbf, 0x5e, 0x37, 0x91, 0x3e,
  0x28, 0x36, 0x1c, 0x3f, 0x2e, 0xc9, 0x81, 0x3e, 0x6b, 0xd8, 0x02, 0x3e,
  0x54, 0x86, 0xb9, 0xbd, 0xb3, 0x3c, 0x83, 0xbe, 0x6e, 0xe1, 0x99, 0x3d,
  0x52, 0xf2, 0xa1, 0x3c, 0x56, 0x17, 0xad, 0x3e, 0x90, 0xb4, 0xae, 0x3e,
  0xb0, 0x1b, 0xd7, 0xbe, 0x67, 0x16, 0xf1, 0x3e, 0x8d, 0x35, 0xac, 0x3d,
  0x6d, 0x52, 0xbe, 0x3e, 0xe3, 0xa2, 0x20, 0x3e, 0xaf, 0x87, 0xb9, 0xbe,
  0x50, 0xd5, 0xaa, 0x3e, 0xdc, 0x40, 0x62, 0x3e, 0xdb, 0x5b, 0xf9, 0xbe,
  0xd2, 0xc6, 0x39, 0x3e, 0x36, 0x22, 0x24, 0x3e, 0x19, 0xec, 0x06, 0xbe,
  0x7f, 0xc3, 0xff, 0x3d, 0x27, 0xbc, 0xd7, 0x3a, 0xed, 0x64, 0x96, 0xbe,
  0x55, 0x64, 0xae, 0x3e, 0x39, 0xa8, 0x3d, 0x3e, 0x4a, 0x8d, 0x08, 0x3f,
  0xd8, 0x12, 0xa8, 0xbc, 0x25, 0x59, 0x07, 0x3e, 0x93, 0x25, 0xe9, 0xbe,
  0x4a, 0x9b, 0xc1, 0xbe, 0xb4, 0xc0, 0x9e, 0x3e, 0xaf, 0xc2, 0x87, 0x3d,
  0x5f, 0xf0, 0x5e, 0x3e, 0xba, 0x01, 0x24, 0x3e, 0xc3, 0x9c, 0x5c, 0x3e,
  0x12, 0x01, 0xeb, 0xbe, 0xb5, 0x1b, 0xb8, 0x3d, 0x7a, 0x4b, 0xca, 0x3d,
  0x22, 0x56, 0xfd, 0xbe, 0x74, 0xad, 0xb1, 0xbe, 0x98, 0x23, 0x1e, 0xbe,
  0x96, 0x78, 0xbf, 0xbe, 0x8f, 0x13, 0x4c, 0xbe, 0x41, 0x54, 0x28, 0xbe,
  0x9d, 0x29, 0xc4, 0x3e, 0xed, 0x6b, 0x5a, 0x3e, 0x72, 0xf1, 0x0f, 0xbf,
  0x2d, 0x1c, 0x8d, 0xbd, 0xd1, 0x81, 0xc9, 0x3e, 0x44, 0xf1, 0x47, 0xbe,
  0x62, 0xad, 0xaa, 0x3d, 0xd0, 0x94, 0x70, 0x3e, 0xdd, 0x9a, 0xca, 0xbe,
  0xa1, 0x65, 0x49, 0xbe, 0x11, 0x6e, 0x71, 0x3e, 0x00, 0x00, 0x0e, 0x00,
  0x14, 0x00, 0x04, 0x00, 0x00, 0x00, 0x08, 0x00, 0x0c, 0x00, 0x10, 0x00,
  0x0e, 0x00, 0x00, 0x00, 0x10, 0x00, 0x00, 0x00, 0x01, 0x00, 0x00, 0x00,
  0x10, 0x00, 0x00, 0x00, 0x30, 0x00, 0x00, 0x00, 0x01, 0x00, 0x00, 0x00,
  0x10, 0x00, 0x00, 0x00, 0x1c, 0x00, 0x00, 0x00, 0x73, 0x65, 0x71, 0x75,
  0x65, 0x6e, 0x74, 0x69, 0x61, 0x6c, 0x2f, 0x64, 0x65, 0x6e, 0x73, 0x65,
  0x2f, 0x4d, 0x61, 0x74, 0x4d, 0x75, 0x6c, 0x5f, 0x62, 0x69, 0x61, 0x73,
  0x00, 0x00, 0x00, 0x00, 0x20, 0xff, 0xff, 0xff, 0x40, 0x00, 0x00, 0x00,
  0x8f, 0x6a, 0x8c, 0xbf, 0x96, 0x51, 0xe6, 0xbd, 0x5d, 0xbb, 0x37, 0x3f,
  0xe6, 0xc0, 0x11, 0xbe, 0xf2, 0x9c, 0x09, 0xbf, 0x5c, 0x27, 0x00, 0xbe,
  0xbd, 0x3f, 0xfe, 0xbd, 0x13, 0xd3, 0xd0, 0xbf, 0x77, 0xf3, 0x0e, 0x41,
  0xc4, 0x02, 0x08, 0xbe, 0xec, 0x1c, 0x1e, 0xbf, 0x24, 0xe6, 0x68, 0xbe,
  0x9d, 0x3c, 0xeb, 0xbd, 0xb7, 0x12, 0xd5, 0xbe, 0xdd, 0x4f, 0xe3, 0x3f,
  0xf8, 0x7c, 0x08, 0xbe, 0x07, 0x00, 0x00, 0x00, 0x00, 0x02, 0x00, 0x00,
  0x90, 0x01, 0x00, 0x00, 0x3c, 0x01, 0x00, 0x00, 0xd0, 0x00, 0x00, 0x00,
  0x8c, 0x00, 0x00, 0x00, 0x48, 0x00, 0x00, 0x00, 0x04, 0x00, 0x00, 0x00,
  0x30, 0xfe, 0xff, 0xff, 0x00, 0x00, 0x00, 0x09, 0x04, 0x00, 0x00, 0x00,
  0x10, 0x00, 0x00, 0x00, 0x14, 0x00, 0x00, 0x00, 0x24, 0x00, 0x00, 0x00,
  0x14, 0x00, 0x00, 0x00, 0x01, 0x00, 0x00, 0x00, 0x0b, 0x00, 0x00, 0x00,
  0x01, 0x00, 0x00, 0x00, 0x00, 0x00, 0x00, 0x00, 0x00, 0x00, 0x00, 0x00,
  0x00, 0x00, 0x06, 0x00, 0x08, 0x00, 0x04, 0x00, 0x06, 0x00, 0x00, 0x00,
  0x00, 0x00, 0x80, 0x3f, 0x70, 0xfe, 0xff, 0xff, 0x00, 0x00, 0x00, 0x08,
  0x02, 0x00, 0x00, 0x00, 0x10, 0x00, 0x00, 0x00, 0x1c, 0x00, 0x00, 0x00,
  0x28, 0x00, 0x00, 0x00, 0x1c, 0x00, 0x00, 0x00, 0x03, 0x00, 0x00, 0x00,
  0x0a, 0x00, 0x00, 0x00, 0x0c, 0x00, 0x00, 0x00, 0x0d, 0x00, 0x00, 0x00,
  0x01, 0x00, 0x00, 0x00, 0x0b, 0x00, 0x00, 0x00, 0x00, 0x00, 0x00, 0x00,
  0x04, 0x00, 0x04, 0x00, 0x04, 0x00, 0x00, 0x00, 0xb0, 0xfe, 0xff, 0xff,
  0x00, 0x00, 0x00, 0x08, 0x02, 0x00, 0x00, 0x00, 0x10, 0x00, 0x00, 0x00,
  0x1c, 0x00, 0x00, 0x00, 0x24, 0x00, 0x00, 0x00, 0x1c, 0x00, 0x00, 0x00,
  0x03, 0x00, 0x00, 0x00, 0x0f, 0x00, 0x00, 0x00, 0x08, 0x00, 0x00, 0x00,
  0x09, 0x00, 0x00, 0x00, 0x01, 0x00, 0x00, 0x00, 0x0a, 0x00, 0x00, 0x00,
  0x00, 0x00, 0x00, 0x00, 0x2e, 0xfe, 0xff, 0xff, 0x00, 0x00, 0x00, 0x01,
  0xf0, 0xfe, 0xff, 0xff, 0x00, 0x00, 0x00, 0x05, 0x03, 0x00, 0x00, 0x00,
  0x10, 0x00, 0x00, 0x00, 0x14, 0x00, 0x00, 0x00, 0x2c, 0x00, 0x00, 0x00,
  0x14, 0x00, 0x00, 0x00, 0x01, 0x00, 0x00, 0x00, 0x07, 0x00, 0x00, 0x00,
  0x01, 0x00, 0x00, 0x00, 0x0f, 0x00, 0x00, 0x00, 0x00, 0x00, 0x00, 0x00,
  0x00, 0x00, 0x0e, 0x00, 0x14, 0x00, 0x00, 0x00, 0x04, 0x00, 0x08, 0x00,
  0x0c, 0x00, 0x10, 0x00, 0x0e, 0x00, 0x00, 0x00, 0x01, 0x00, 0x00, 0x00,
  0x03, 0x00, 0x00, 0x00, 0x01, 0x00, 0x00, 0x00, 0x03, 0x00, 0x00, 0x00,
  0x14, 0x00, 0x18, 0x00, 0x00, 0x00, 0x08, 0x00, 0x0c, 0x00, 0x07, 0x00,
  0x10, 0x00, 0x00, 0x00, 0x00, 0x00, 0x14, 0x00, 0x14, 0x00, 0x00, 0x00,
  0x00, 0x00, 0x00, 0x01, 0x10, 0x00, 0x00, 0x00, 0x1c, 0x00, 0x00, 0x00,
  0x30, 0x00, 0x00, 0x00, 0x1c, 0x00, 0x00, 0x00, 0x03, 0x00, 0x00, 0x00,
  0x0e, 0x00, 0x00, 0x00, 0x05, 0x00, 0x00, 0x00, 0x06, 0x00, 0x00, 0x00,
  0x01, 0x00, 0x00, 0x00, 0x07, 0x00, 0x00, 0x00, 0x00, 0x00, 0x00, 0x00,
  0x0c, 0x00, 0x10, 0x00, 0x00, 0x00, 0x08, 0x00, 0x0c, 0x00, 0x07, 0x00,
  0x0c, 0x00, 0x00, 0x00, 0x00, 0x00, 0x00, 0x01, 0x01, 0x00, 0x00, 0x00,
  0x01, 0x00, 0x00, 0x00, 0xa8, 0xff, 0xff, 0xff, 0x00, 0x00, 0x00, 0x05,
  0x03, 0x00, 0x00, 0x00, 0x10, 0x00, 0x00, 0x00, 0x14, 0x00, 0x00, 0x00,
  0x2c, 0x00, 0x00, 0x00, 0x14, 0x00, 0x00, 0x00, 0x01, 0x00, 0x00, 0x00,
  0x04, 0x00, 0x00, 0x00, 0x01, 0x00, 0x00, 0x00, 0x0e, 0x00, 0x00, 0x00,
  0x00, 0x00, 0x00, 0x00, 0x00, 0x00, 0x0e, 0x00, 0x18, 0x00, 0x07, 0x00,
  0x08, 0x00, 0x0c, 0x00, 0x10, 0x00, 0x14, 0x00, 0x0e, 0x00, 0x00, 0x00,
  0x00, 0x00, 0x00, 0x01, 0x03, 0x00, 0x00, 0x00, 0x03, 0x00, 0x00, 0x00,
  0x03, 0x00, 0x00, 0x00, 0x03, 0x00, 0x00, 0x00, 0x14, 0x00, 0x1c, 0x00,
  0x08, 0x00, 0x0c, 0x00, 0x10, 0x00, 0x07, 0x00, 0x14, 0x00, 0x00, 0x00,
  0x00, 0x00, 0x18, 0x00, 0x14, 0x00, 0x00, 0x00, 0x00, 0x00, 0x00, 0x02,
  0x01, 0x00, 0x00, 0x00, 0x10, 0x00, 0x00, 0x00, 0x1c, 0x00, 0x00, 0x00,
  0x34, 0x00, 0x00, 0x00, 0x1c, 0x00, 0x00, 0x00, 0x03, 0x00, 0x00, 0x00,
  0x01, 0x00, 0x00, 0x00, 0x02, 0x00, 0x00, 0x00, 0x03, 0x00, 0x00, 0x00,
  0x01, 0x00, 0x00, 0x00, 0x04, 0x00, 0x00, 0x00, 0x00, 0x00, 0x00, 0x00,
  0x00, 0x00, 0x0e, 0x00, 0x14, 0x00, 0x00, 0x00, 0x08, 0x00, 0x0c, 0x00,
  0x10, 0x00, 0x07, 0x00, 0x0e, 0x00, 0x00, 0x00, 0x00, 0x00, 0x00, 0x01,
  0x01, 0x00, 0x00, 0x00, 0x01, 0x00, 0x00, 0x00, 0x08, 0x00, 0x00, 0x00,
  0x05, 0x00, 0x00, 0x00, 0x34, 0x00, 0x00, 0x00, 0x48, 0x00, 0x00, 0x00,
  0x14, 0x00, 0x00, 0x00, 0x20, 0x00, 0x00, 0x00, 0x04, 0x00, 0x00, 0x00,
  0xce, 0xff, 0xff, 0xff, 0x00, 0x00, 0x00, 0x19, 0xd6, 0xff, 0xff, 0xff,
  0x00, 0x00, 0x00, 0x09, 0xde, 0xff, 0xff, 0xff, 0x00, 0x00, 0x00, 0x09,
  0xe6, 0xff, 0xff, 0xff, 0x00, 0x00, 0x00, 0x11, 0xfa, 0xff, 0xff, 0xff,
  0x00, 0x03, 0x06, 0x00, 0x06, 0x00, 0x05, 0x00, 0x06, 0x00, 0x00, 0x00,
  0x00, 0x11, 0x06, 0x00, 0x08, 0x00, 0x07, 0x00, 0x06, 0x00, 0x00, 0x00,
  0x00, 0x00, 0x00, 0x04
};
unsigned int model_tflite_len = 19616;
